[PAD]
[UNK]
[CLS]
[SEP]
[MASK]
!
"
#
$
%
&
'
(
)
*
+
,
-
.
/
0
1
2
3
4
5
6
7
8
9
:
;
<
=
>
?
@
[
\
]
^
_
`
a
b
c
d
e
f
g
h
i
j
k
l
m
n
o
p
q
r
s
t
u
v
w
x
y
z
{
|
}
~
¡
¢
£
¤
¥
¦
§
¨
©
ª
«
¬
®
¯
°
±
²
³
´
µ
¶
·
¸
¹
º
»
¼
½
¾
¿
×
ß
æ
ð
÷
ø
þ
đ
ħ
ı
ł
œ
ƙ
ǀ
ǃ
ə
ʀ
ʊ
ʻ
ʼ
ʽ
ʿ
ˆ
ˈ
˚
˜
˝
α
β
ε
ζ
η
ι
κ
λ
μ
ν
ο
π
ρ
ς
σ
τ
φ
ω
ϟ
а
б
в
д
е
з
и
к
л
м
н
о
п
р
с
т
у
ы
ь
ю
я
і
ћ
ԯ
ן
ا
ب
ة
ت
ج
ح
ر
س
ش
ع
ف
ك
ل
م
و
ي
ง
ต
บ
ป
พ
ย
ร
ะ
ᄀ
ᄂ
ᄉ
ᄋ
ᄐ
ᅡ
ᅳ
ᅵ
ᆯ
ᆷ
ᆼ
‐
‑
‒
–
—
―
‘
’
‚
“
”
„
‟
†
‡
•
…
‰
′
″
‹
‼
⁄
⁰
₩
€
℃
™
⅓
⅔
⅛
⅜
→
∑
−
∙
∼
─
█
■
▬
▲
▼
●
★
☆
☺
♡
♥
❤
き
こ
さ
た
っ
て
ろ
ん
コ
ネ
ル
ロ
ー
世
个
中
你
分
呀
四
回
声
外
女
家
寝
帰
年
心
新
方
明
春
曆
有
朝
来
没
游
界
等
節
紅
綠
縄
縯
自
藍
農
过
钱
门
音
ﬀ
ﬁ
ﬂ
！
（
）
，
ｍ
ｓ
￥
￼
💀
😳
🙏
##s
##b
##l
##a
##c
##k
##e
##r
##y
##t
##i
##o
##n
##p
##g
##h
##d
##m
##u
##8
##z
##3
##2
##5
##w
##v
##j
##6
##f
##ø
##4
##0
##q
##9
##1
##x
##€
##7
##™
##ð
##ł
##½
##¨
##£
##º
##©
##¢
##°
##®
##¹
##×
##ʼ
##ﬂ
##´
##±
##¤
##ん
##¦
##œ
##ร
##ะ
##ต
##❤
##æ
##˜
##˝
##³
##ß
##²
##¥
##о
##て
##き
##た
##℃
##ˆ
##а
##р
##т
##і
##я
##¬
##¼
##⁰
##−
##в
##и
##д
##м
##с
##ย
##พ
##α
##е
##ι
##φ
##ε
##ı
##¯
##¾
##τ
##ﬁ
##ǃ
##у
##ª
##þ
##♥
##к
##з
##б
##⁄
##ﬀ
##ʻ
##⅓
##˚
##ろ
##н
##¸
##μ
##ο
##ν
##ζ
##ħ
##∙
##ς
##ロ
##ネ
##⅔
##ǀ
##ю
##ь
##ω
##บ
##ف
##و
##ر
##β
##ง
##ل
##ا
##ت
##ب
##ー
##ル
##☺
##κ
##σ
##ы
##λ
##ｓ
##☆
##ρ
##⅜
##ʊ
##ə
##⅛
##л
##ʿ
##ƙ
##ʀ
##ן
##∑
##م
##ح
##ج
##ة
##ي
##ك
##ش
##●
##µ
##η
##ᅡ
##ᆼ
##ᄂ
##ᆷ
##ᄉ
##ᅳ
##ᄐ
##ᄋ
##ᅵ
##ᆯ
th
##er
the
##in
##ed
##en
##on
##or
##es
##at
##an
##ing
##ar
to
in
an
##ou
##as
##it
##al
##is
of
and
##ic
##il
##om
##re
##id
##el
##ion
##ent
be
##le
wh
##ot
##ay
on
##st
##ut
##ur
##ad
for
re
##ve
##am
##ac
st
##ol
##ow
##et
he
##ir
##ig
was
##ter
##ly
is
sh
that
it
##im
pr
##ver
##ec
##ith
##ld
at
sa
as
with
al
##ch
##th
fr
##se
ch
##ill
##ere
##ers
said
##ce
##ear
ha
his
##ation
##op
##est
##oun
con
##ag
##igh
##and
##ul
##ri
su
we
##ess
##os
##ain
##ak
##em
by
ne
com
have
from
##un
##pp
##our
her
##od
##us
##ts
un
has
are
de
le
se
but
##ted
af
she
sp
##ore
##if
##oc
##ould
not
they
ex
tr
who
ac
##ate
##ok
##gh
##ast
##ight
##ack
##iv
ab
##ab
year
br
##ust
##all
##ment
this
##ity
had
##her
en
go
ar
pl
##ard
wor
##ist
##art
20
after
cl
##end
##ome
##ap
##ie
##ive
##ice
##ies
or
##ich
their
##ell
##um
were
been
off
will
up
##ort
##ound
##ud
##ost
##out
out
##ant
##day
##ge
man
##ial
##ide
ad
##ber
##ough
gr
cr
new
##own
when
one
ag
##one
##ia
##der
can
##ous
you
do
all
##ct
tw
rep
##ub
##ated
##ish
pro
##ong
which
me
pol
sc
##ine
##au
##ue
##ime
pe
##av
res
li
int
##ect
##ans
am
car
##ict
##ail
so
more
##age
about
##ame
lo
##ally
##ace
##ary
##ays
##ry
there
would
##ord
us
##ake
cont
##ke
##ff
inc
no
over
ro
##ure
comp
##so
dr
him
##ople
##ence
##00
people
mar
exp
##ions
##ile
##ip
ev
im
dis
also
acc
bec
201
##pt
##ach
two
just
##ild
##ian
fir
app
##ire
bl
per
mon
##oll
##ite
##ond
##ther
##ass
##ely
bo
att
##ind
than
##ree
kn
##ign
##ks
my
time
fe
##og
te
rec
mr
##ount
##aw
into
last
##ft
them
some
##ick
##qu
##man
##uc
part
##ident
co
##other
fl
what
if
told
work
jo
pre
##ved
##act
could
##ath
first
sec
##oss
##mer
its
##ib
police
par
##ors
inter
##ro
years
##ep
##ations
how
ph
ser
##ens
dec
##iz
##ning
old
##ade
##iss
##ose
##ife
str
back
fam
rel
##ubl
qu
##reat
##ance
##able
##ood
##fore
##ents
##ang
get
##amp
down
now
des
##ase
mo
any
##ause
##ily
hel
before
ever
##ied
19
other
play
inv
comm
##ery
##ting
cent
##ug
wee
again
##ical
like
offic
##ra
##ater
being
##ink
show
##ned
child
min
##ious
pres
##land
did
##orm
under
home
##old
cour
op
count
act
world
##uring
##ition
char
##ne
##ock
sch
call
where
while
##ates
because
##oup
##ving
add
##ool
publ
##sp
##enc
thr
found
bel
may
##lud
##ory
left
say
three
##ings
imp
only
ind
##ited
rem
##ult
our
look
sur
##atch
##wn
##nn
wom
day
200
##gr
##ured
ear
000
month
##ged
em
##ons
##ash
est
family
##aking
##ton
##als
sm
##ince
ob
##ather
high
includ
during
ke
most
bet
##ier
##illion
then
war
cnn
##oth
##anc
made
tri
##fer
sy
##we
gu
##ren
##ters
every
fin
##are
##air
week
##ational
see
##vers
repor
even
def
ass
aw
col
right
don
wr
pict
##hing
##br
##ating
against
star
##son
help
through
air
##uch
##az
##ouse
very
##lo
gover
court
##ked
##oot
##ty
##ities
##elf
##ise
po
mil
ter
supp
govern
##les
med
##ful
cons
many
cla
life
##ah
says
lead
##ues
know
bar
##led
bu
ve
around
##itt
##ix
miss
long
make
##ope
law
##ember
reg
eng
##ital
##ording
##augh
way
##cc
kill
inf
dep
president
team
##vel
children
##ought
claim
four
win
##urn
well
need
##ester
##ased
##ble
end
school
##eric
ret
own
according
##hn
nor
since
##orn
vide
take
cap
##side
those
government
house
invest
##erson
brit
americ
##get
think
##ying
hand
belie
sou
head
stud
##iew
##up
your
set
##med
should
city
##ected
still
det
##osp
##ress
aut
##ollow
##gan
##ave
##ene
##ures
happ
going
fri
friend
##ody
##ement
##ction
state
follow
##ished
group
bre
attack
##king
plan
##ull
##ves
video
##ger
##ives
put
good
##ual
##used
former
##ven
##ale
##rib
10
near
##xt
conf
##ys
##alth
these
official
death
cle
##imes
resp
##int
##urr
##ward
run
sl
another
country
dem
##co
##ists
##iel
night
face
bus
ed
vict
such
leg
##ently
##cer
##ason
##ner
##per
public
##ments
youn
##uss
##ised
much
dif
##ork
##bs
tak
second
sw
prot
sign
sun
##ms
##ele
##und
##ween
united
##ible
between
##ama
including
##ady
##ister
investig
spe
##irl
##ames
##ular
##ric
pass
ele
##ered
el
used
##ph
want
##ced
ma
dri
##tain
##earch
wal
##hip
mother
intern
##its
called
spok
##io
gen
south
far
inst
id
women
##ott
num
som
##ling
appear
big
chr
##ange
ext
##ened
ap
sk
loc
2013
today
##ney
har
stat
post
care
both
mem
hosp
contr
real
person
camp
vis
girl
tal
##ley
pictured
##aff
next
pat
##ants
##olog
##ecut
##ury
never
five
##urs
##gest
ann
##ets
took
sent
health
sim
later
##ina
##ral
hour
foot
ref
met
##att
serv
arr
cond
adm
added
la
days
beh
##ines
great
##ics
##app
##bo
compan
##ower
phot
##let
fil
##ret
##ondon
london
mor
##hor
##line
men
ban
uk
exper
come
##bers
prop
alle
##ote
got
ste
young
case
contin
news
##ness
##oney
top
##ivers
##eral
cam
hospital
report
##ison
away
seen
trans
mid
does
sex
find
##by
##ision
##ages
rele
million
##ham
red
##ually
##ever
doc
del
same
cre
months
six
##uck
somet
sen
##iving
##ont
##uary
eff
author
##red
dire
spec
##ead
prov
sat
lar
reported
place
ra
inj
north
came
let
here
##ency
##ights
went
12
2012
taken
stand
gre
national
really
##ility
##iday
colle
watch
won
best
prev
##ax
wed
##ins
too
hal
iss
soc
##nes
tur
mark
sever
coun
##iam
eur
##ined
manag
##ior
##osed
times
15
sub
aff
rest
hum
##ative
pay
obama
##els
##opp
##ute
prod
ins
gl
john
dav
pa
open
milit
train
##ew
woman
use
##ared
dist
arrest
west
stre
##ices
support
##ived
didn
son
test
vi
fac
##ru
11
expl
fire
##ific
father
##ee
club
wife
prof
unt
published
##ague
perf
cal
##ient
ca
cor
rece
polit
number
##res
##ges
remain
game
##ark
##unch
mur
##con
commun
scr
18
jud
however
keep
adv
susp
30
died
##ield
##aughter
sit
york
mod
oper
cost
lot
allow
spokes
##ittle
##thing
christ
mus
##iness
states
##ces
killed
having
differ
##ird
money
coup
##self
little
few
sn
##urity
side
direct
aust
opp
##iting
##ball
body
poss
##ony
hit
##orts
##ways
without
upd
av
until
feel
##ried
move
each
white
season
hard
asked
british
water
following
hol
company
security
##ued
press
suff
record
##view
england
black
start
##iven
##sh
victim
##iet
pop
build
jan
shot
league
univers
known
##ided
##ately
desc
##artment
curr
art
half
##anted
american
past
il
thought
##enn
##iver
progr
trav
saf
friends
##eng
##ention
##ism
something
party
reve
##ending
clear
##ether
saying
officials
proble
international
##pl
hours
ir
##itted
quest
##ands
sunday
invol
##idence
ago
ris
##ross
camer
prom
disc
##ended
##rap
##atic
updated
##ially
mich
##stem
statement
monday
business
##ror
##oke
across
maj
##ering
desp
boy
given
##ief
earl
dead
##ones
along
europe
viol
system
dev
stri
area
##ection
pos
##ov
bur
##ats
power
members
daughter
##ession
sal
tues
##ience
drug
inform
##be
tuesday
fact
mess
russ
ger
ge
sing
cup
##ution
mail
hot
##gy
##ik
able
##aign
campaign
working
pet
office
##loy
##velop
##ograp
always
deal
university
##ards
##ready
fail
reveal
david
several
##ten
##elling
free
already
friday
##ann
gun
local
16
##utes
why
##ipp
##amed
alleged
mom
couple
match
##inal
despite
taking
##ized
##aster
military
secret
cele
concer
##port
hist
##ush
research
making
read
develop
austral
parents
fight
mc
order
earlier
champ
whether
celebr
outside
##vered
ms
service
##une
hus
event
meet
less
book
##ired
believe
##use
treat
lab
hear
##ration
major
murder
describ
ang
ju
early
view
13
##itch
small
199
minister
##wh
wednes
##ained
##ize
##ove
wednesday
##ane
park
den
£1
once
##ects
lik
incre
sug
arm
food
14
##band
using
##ified
behind
25
authorities
among
bab
conv
design
##uct
love
satur
started
requ
though
##ump
weeks
room
##atter
val
proc
organ
hold
give
##yp
es
threat
sold
scroll
incident
crit
things
staff
arri
fur
##akes
front
prison
saturday
become
seem
sol
hom
sum
##ank
##rem
main
17
officers
##cept
cut
tec
##par
might
heard
grand
step
thurs
super
wanted
##iously
thursday
exc
##ians
full
final
ent
looking
##less
emer
lost
##ett
better
mag
tax
saw
##ming
road
husband
land
##ries
spokesman
short
football
close
mrs
dam
cust
class
fed
deb
media
different
##ising
chang
announ
least
doct
##fic
morning
succ
nat
wa
released
mean
must
ey
human
department
pros
##ops
##ject
##ators
##book
point
players
rob
##ases
level
bill
form
live
tar
toget
trying
together
march
##way
consid
proper
##aged
pain
program
emp
##oy
##inc
hope
##ape
ant
heart
bir
ple
econ
prosecut
fall
econom
##pr
occ
based
##itter
##emp
##lex
alm
partic
social
change
information
##thers
britain
chief
street
##ael
priv
dog
grow
import
kid
afric
others
##eal
##ored
ball
investigation
mass
arg
pal
hu
##ator
##ern
job
shoot
stay
third
success
##ically
january
##gin
shows
town
arrested
2011
pot
wrote
yet
##istan
held
##chester
##urch
visit
##que
tre
##ense
roy
50
ah
name
ground
wear
minutes
began
appro
syri
##ium
##ograph
claims
dou
suggest
##ances
decision
himself
rul
##erv
getting
judge
##ench
control
fund
compl
ham
ident
almost
wind
enough
goal
search
##enal
interest
const
led
##ides
##go
sept
##unt
net
##ocr
##ps
claimed
seven
revealed
tot
break
launch
##aily
evidence
##acy
fun
yester
techn
done
##ugg
special
yesterday
daily
republ
age
squ
doing
jack
hor
became
##ford
republic
reach
fel
line
geor
jour
san
facebook
oct
fre
disco
political
bad
fell
bro
eight
terror
strong
che
stop
bed
rad
recent
east
relations
##ences
september
##ology
##ably
##mber
port
##ler
list
mot
100
phone
aug
di
turn
##ds
fut
execut
polic
manchester
interview
site
##ker
##million
anim
compet
counc
##den
expected
nove
ll
prem
hop
november
return
december
underst
ur
produc
inside
##ober
rich
fig
##erm
director
medical
further
thing
lives
equ
likely
bor
##bc
october
officer
24
cer
tour
baby
german
vir
happened
rights
democr
##aced
often
fans
jail
important
elect
alth
michael
august
21
fear
ill
although
##ption
due
enter
rom
late
travel
host
community
##sel
feat
mal
june
games
##hic
william
neigh
within
neighb
comes
county
insp
living
bas
accused
##ening
##wards
future
##idge
centre
imm
lat
##ril
light
mart
activ
online
tell
##aper
##bert
conn
40
##ission
##aut
film
##eck
trial
scene
manager
##aps
action
##str
question
sour
mill
##cent
spot
##dle
lear
chall
blood
webs
general
target
tried
##oci
complet
someone
##opped
coll
council
##aly
batt
##ocked
spent
2010
story
shar
involved
described
tv
washing
associ
charges
low
leave
july
history
mad
force
employ
lu
##ural
legal
##ai
##ald
##sea
##ients
##ech
famil
##itions
bring
##iff
confir
ide
##ination
received
april
##lish
ho
fore
china
ira
##itness
comment
##anger
kind
van
los
believed
##bed
22
poin
##ung
large
simp
sure
played
##gn
civ
##yle
dress
##thern
doesn
##rew
##ike
##oon
term
##af
nation
##room
leav
gave
lim
possible
leader
diffic
##mp
nothing
##oud
try
difficult
bom
capt
##uted
##uel
center
building
##ories
bene
leaders
reports
james
teen
iraq
turned
##rop
risk
champions
paul
##lam
##ensive
anything
royal
attor
king
america
crash
process
##ring
twitter
forward
eas
enc
charged
##ilar
prime
washington
thous
pick
quick
coming
brother
civil
##ortun
summer
vill
que
moment
training
##nal
player
tom
custom
birth
##ster
series
##ana
2014
scre
##ests
ahead
round
##ots
agre
wasn
nearly
sil
detail
retur
respons
##aught
##row
federal
cross
trad
glo
liver
cho
fa
market
##ef
repres
repl
##ults
island
board
##icted
##ented
##ential
cancer
febr
vot
contrib
gold
february
relationship
##0s
##ico
resident
clin
soon
##ety
docu
carry
website
crime
23
mer
##pool
course
gener
worked
198
playing
forces
calif
miles
bal
##ows
appeared
certain
challen
space
fav
students
vehic
secretary
##selves
##ns
californ
sam
personal
##uation
ran
##ging
foreign
guil
flight
popular
rac
defend
##iding
##fri
##irc
extrem
green
admitted
cann
beat
wrong
ten
problem
hotel
cover
dom
##over
crim
phil
happy
continue
everything
enj
##uce
typ
born
role
kore
##isted
##ival
middle
dest
surv
victims
clos
brown
orig
##body
study
chel
lif
treatment
countries
whose
gar
fer
tit
##itive
hands
showed
bank
california
instead
recently
similar
issue
agency
admin
##ino
everyone
##ively
##ains
thousands
safety
##friend
picture
init
australia
justice
assa
bit
hon
##oph
serious
announced
european
##oming
anyone
##medi
french
##ars
private
church
##lin
knew
forced
wall
congr
felt
circ
plans
islam
effect
girls
vol
##rain
##rict
flor
looked
div
heav
qual
##rael
makes
services
angel
##ata
##oring
israel
families
currently
pair
£2
##esh
2009
immedi
disapp
caused
nine
problems
above
##cl
draw
afgh
running
fly
strugg
##ference
sle
condition
##ners
means
esc
decided
attorney
##sw
region
ber
educ
speak
guilty
member
deep
trip
26
prob
rock
particular
foc
##iers
violence
##work
er
##iec
track
##ither
emb
key
brought
liverpool
amb
danger
##mas
##na
result
career
station
paid
chelsea
sexual
chance
##ding
photograph
##using
##read
card
lawy
##ulation
access
##iety
self
##ental
wood
##ounds
huge
rather
##ressed
##empt
##eth
flo
##enced
27
abs
afghan
race
journal
##uction
student
##field
bag
protect
latest
##ida
music
##ona
##uit
accident
premier
##aded
experience
allegedly
impro
moved
weekend
doctors
reb
decl
##ease
benef
workers
pan
administ
indust
mis
weap
alex
capital
cases
coast
suppor
account
understand
##bal
##for
cause
posted
missing
dan
28
coach
property
george
witness
##uries
iran
named
fem
box
wil
failed
hill
remains
meas
##wood
ver
hund
##uff
neg
##ma
hearing
suffered
needed
france
cand
##ese
beaut
christmas
drink
themselves
election
mcc
hundred
##eter
sand
creat
include
crow
chair
tele
##sy
actually
senior
2008
##sey
attacks
##ades
scient
syria
##fully
gone
expect
##yn
tex
##ibility
labour
rev
respond
else
norm
patients
##asing
twe
esp
snow
meeting
airport
leaving
##ilt
central
trust
pack
army
je
discovered
page
allowed
##lim
bott
married
bri
critic
common
worth
cur
var
ben
avail
bul
##cel
cameron
resc
##oid
shooting
policy
message
anti
idea
##hood
plane
##itional
beach
percent
broad
arrived
comments
laws
pract
situation
##ox
reason
##ij
##atives
speaking
##aces
ars
assist
current
helped
killing
fat
buy
financ
##ivid
mex
touch
infl
charge
##uty
couldn
talk
aver
field
smith
looks
marri
traff
surpr
discuss
whole
driving
##imate
determ
500
phys
bbc
##gency
loss
earth
single
present
##bi
sports
##orman
mind
africa
commission
begin
##ength
russia
##ams
billion
##cle
##ky
prince
quite
sister
leading
lou
197
price
areas
door
29
##iod
abuse
driver
release
deliver
images
wearing
photo
groups
##to
##ises
pictures
braz
##ola
##ca
needs
matter
criminal
##ify
##han
thom
position
opportun
##te
image
store
##ergy
available
confirmed
cult
wants
##ara
perform
##oin
points
mob
##iter
##ees
##acted
##cted
battle
tro
issues
##iant
hair
env
surve
surr
##my
##ston
pressure
##bing
russian
oly
mat
olymp
individ
cannot
##itor
longer
injuries
cell
americans
conserv
cast
##50
immig
period
storm
committ
##aur
executive
non
bid
approach
defense
returned
ship
internet
##ogn
hall
disease
##apan
separ
intr
kept
cy
provide
behav
ens
model
piec
english
winning
project
operation
comb
alleg
os
brand
swe
signific
japan
pil
attempt
die
oppos
refer
florida
organiz
drugs
mount
caught
union
##oo
##icated
safe
complain
represent
##la
martin
total
letter
##epend
unf
victory
aud
sport
walk
sir
speed
firm
charac
surg
brazil
independ
peace
college
##ron
##umb
mult
##ites
data
eye
pret
mov
fair
weight
##ka
pred
performan
##hire
##ication
previous
range
##elled
##where
source
residents
hundreds
feet
minute
mel
extra
##opping
injured
continued
pak
##bur
##mar
bud
link
join
obs
created
emergency
jer
rod
stage
##ift
demand
technology
fighting
scot
reporter
takes
answ
boss
##rid
sea
goals
committee
famous
cat
district
guard
disp
arch
displ
##hol
biggest
enjoy
carried
average
share
##cast
##wor
kids
vote
ow
included
sad
gard
energy
##key
photos
works
60
dre
##ica
hur
accept
##omm
##ushed
tim
appeal
giving
##raft
queen
review
finally
fash
cred
weather
rap
wild
conference
ken
corn
apple
homes
quickly
##cement
telev
fif
##onse
pakistan
built
amaz
##kn
warned
camera
border
scott
entire
marriage
##pped
crew
brain
appar
previously
injury
kick
hers
gas
administration
financial
##otion
response
immediately
owner
significant
users
sleep
potential
offer
##action
cit
##ez
##ugh
arsenal
##ores
quar
poor
contributed
##ho
calls
fashion
wel
launched
pers
ash
ru
##rovers
##ounded
shock
##itten
blue
experts
consum
controvers
recover
captain
##ille
cop
##uses
holiday
##inese
##essional
##engers
##essor
base
##eted
31
nav
sentence
remember
##me
##oken
germany
196
demon
##pm
princ
female
details
comput
questions
mist
doub
probably
regular
inqu
economic
conc
ep
surgery
muslim
style
##ander
##acher
roll
fit
either
attention
vehicle
isn
2007
##leg
table
pul
growing
address
crown
unl
##ada
fort
assault
appl
lived
##apped
##iron
chinese
chris
australian
recogn
##berg
deg
contact
passengers
companies
##yan
##ishing
engine
pregn
bay
attemp
##oved
words
texas
##ends
wat
congress
vers
damage
speech
repe
cloth
richard
##ode
##ability
##hs
education
##ude
hous
rout
fle
restaur
cris
global
teach
espec
especially
gri
£3
din
clean
##ert
##ample
##of
conditions
industry
penal
republican
du
newsp
sens
create
ful
events
impact
fast
##ev
environ
candid
poll
raised
afghanistan
##inks
customers
##ager
##iction
ach
ul
simply
spoke
##ipped
refused
##aging
followed
shown
vo
aid
##ender
denied
towards
##por
drive
##outh
stra
joined
bow
god
oil
trib
##oz
robert
span
##inated
skin
seems
perfect
mos
wid
believes
##estern
sor
detect
##dr
floor
cook
size
happen
williams
convicted
##ogle
##ique
35
partner
goes
challenge
prep
results
##oes
jump
river
eventually
sel
##olf
scotland
cars
##ours
ukrain
ready
northern
consider
sher
herself
opening
##icide
dangerous
ended
franc
##elle
african
##gg
figures
##iled
television
illeg
cab
bod
passed
tem
doctor
attr
contract
45
cash
lack
##astic
google
##ellig
surf
##aker
instit
##fort
sell
spending
##agn
peter
opin
title
citiz
award
##bor
allegations
troops
prevent
fal
warning
alone
sym
##ban
row
ice
pow
##ris
animal
ask
##ena
##unk
mater
changed
pur
mas
sky
parts
moving
offered
environment
inn
professor
jackson
evening
investigators
##ips
johnson
trou
network
##asons
adding
##ancy
encour
##ibly
wedding
schools
jobs
performance
intellig
weapons
##illed
increase
##uced
##ceed
##roy
##val
eyes
##ension
loved
defe
hun
##shire
appears
boys
nick
##come
tough
soldiers
ord
estim
mir
kim
respect
32
##while
jones
angeles
korea
opened
stopped
freed
##com
affair
aged
showing
exam
agreed
carol
amount
shir
abd
radio
aftern
complete
##ications
clinton
crowd
rain
society
##vert
true
web
wonder
check
sometimes
##uing
save
##oper
ron
temper
mach
bail
economy
considered
ath
liber
insur
treated
efforts
##olution
##ecess
afternoon
concerns
designed
opportunity
terri
squad
##ament
calling
fellow
nearby
##craft
tick
largest
parl
##others
doz
lawyer
opt
effort
##pted
dark
signed
##inger
costs
patr
magaz
meanwhile
kar
nations
india
jury
achie
incred
crisis
wouldn
animals
changes
gay
ok
talking
##ob
scored
aim
broke
##iation
histor
##aming
unable
##inary
##lant
throughout
particularly
sense
##ado
spread
girlfriend
mission
##atory
##lines
armed
heavy
mexico
burn
##enger
emerged
eat
##form
dar
motor
western
##ruct
bomb
victor
favour
prosecutors
mobile
ordered
jew
egy
##iger
avoid
tor
##iest
scientists
sud
cere
##rel
example
relig
##back
sale
##oman
issued
development
egypt
completely
chem
eb
charity
luck
higher
alco
introd
cas
bought
##aked
stad
gather
character
protest
chairman
louis
der
document
isis
alcohol
shop
prior
estab
cold
century
madrid
identified
flood
movie
figure
##eless
supporters
##essed
seeing
##iful
terms
##ini
increasing
veter
lord
suspect
exact
sar
wales
reportedly
##rec
date
demonstr
rid
researchers
##ih
##ucle
attend
association
prim
whe
spain
pretty
enfor
wait
##ature
telling
spr
faces
mary
##set
parliam
spend
##etic
##ayed
##vin
arab
rules
nucle
striker
experi
ult
2006
aircraft
song
ol
parliament
jose
natural
##oned
rate
newspaper
gang
millions
##yl
spir
bey
meant
bush
stadium
rise
##ki
##phone
suffering
##anda
psy
levels
normal
##ha
influ
hy
served
##oms
diagn
improve
easy
absol
footage
lang
##down
request
fan
subst
33
managed
##iles
written
twice
dig
explos
doll
placed
##men
andrew
streets
stars
##ilities
walking
charl
waiting
##ground
fine
##itz
nuclear
ensure
bath
onto
related
reporters
ty
southern
islamic
##ounts
##uth
feeling
lee
holding
disappear
psych
paris
majority
sett
straight
##isters
##istry
rub
pun
thomas
fourth
lay
beg
glass
36
dism
##icks
smart
##ills
ros
regard
responsible
vac
##hen
ire
item
##reg
tow
##ches
rescue
block
##ighters
##ba
##pton
thanks
sem
reform
daniel
devast
emotion
grad
##ram
suit
word
intelligence
senate
frank
nhs
beautiful
##online
slow
carrying
##gers
paper
sched
square
numbers
records
material
competition
ut
##oint
itself
##iate
magazine
double
italy
gets
##iny
easter
obv
##ruction
penalty
clearly
##za
jailed
##woman
##ashed
certainly
concerned
standing
mayor
tear
asking
opposition
##well
##fl
documents
mic
defence
lower
repeated
removed
collect
syrian
dogs
village
##mark
##iling
swim
sales
indian
las
shut
lose
presidential
##ole
lad
occas
flag
##erve
closed
pulled
##isl
spl
atlant
##ucted
focus
##bled
wish
##ropri
democratic
reached
winner
proud
counter
##haps
##ago
planning
pull
modern
harry
##eed
horri
##ville
alter
quarter
computer
##istic
original
myself
ce
perhaps
fix
raise
owners
##akers
commit
memor
transport
##omp
population
mailonline
##ression
watching
helping
worst
planned
older
deaths
##erc
##ny
send
products
sentenced
benefits
bi
bodies
successful
decades
##inson
messages
hopes
suicide
suggested
eth
band
##lement
cerem
##urred
struck
actions
virgin
transfer
muse
fired
bedroom
budget
##alled
##arr
##jected
##aves
male
pen
attacked
rare
collection
bird
uns
ital
##ya
##ube
oh
broken
discover
temp
70
whom
palace
##gl
alongside
champion
professional
##oul
bridge
mour
##aud
highest
includes
##lus
fest
starting
lady
##ties
sorry
winter
breath
jon
max
##cher
ox
##ey
jim
##bre
dropped
90
##sequ
mental
email
##iced
##lor
bright
teams
athlet
##ocks
compared
confl
apolog
illegal
34
ram
immigration
##elly
##don
feed
chann
learn
championship
##ex
volunt
restaurant
becoming
screen
##oked
lux
und
##ari
apartment
teacher
massive
lew
stab
##esters
##isc
##aped
choice
putting
##iple
appearance
stun
##hib
barack
stone
ways
imag
ton
specific
positive
talks
minor
dream
##aining
francis
farm
##ements
particip
catch
places
##oking
neighbor
od
aware
piece
thinking
seemed
covered
##eda
##car
necess
2005
product
##ils
dad
constit
extremely
##uled
tas
chec
maintain
cru
flying
300
syd
shared
##ological
color
reasons
80
prepar
apparently
debate
mix
usually
##owing
republicans
comfort
steve
protesters
cooper
facing
survey
museum
beyond
insisted
##oted
associated
boat
##iance
shortly
##he
below
citizens
guy
##adem
strate
##mit
rang
sant
hang
maybe
continues
##zz
fresh
seat
sydney
claiming
scand
organization
type
legisl
##rey
captured
##jects
anth
##arian
quality
independent
handed
strike
bond
actor
gall
convers
##bour
tourn
exist
artic
eu
traffic
amazing
langu
losing
qa
##off
##ga
provided
exch
conservative
aggr
pitch
patient
##bit
adop
brief
##ze
deputy
academ
committed
healthy
##bridge
explained
nas
stock
degree
linked
culture
mp
rape
eating
barcel
soft
affected
holly
expressed
barcelona
path
sick
defin
luc
yes
thank
hack
arms
##going
lam
ari
##van
names
operations
strength
37
filed
gal
##utely
garden
features
clim
progress
£4
##lands
harm
italian
ring
fbi
##uk
trag
violent
signs
initially
rose
##ounding
sitting
ga
behavi
##ires
movement
connect
giant
bear
ryan
individual
custody
cub
wide
device
##ero
display
teenager
sup
##night
reality
greater
defeat
georg
ministry
charles
dip
bol
receive
selling
penn
laur
jul
ones
knows
walked
conduct
mand
ability
##hold
shel
clash
oce
fox
refle
trade
##nel
advert
version
olympic
prices
argent
causing
murr
fully
ukraine
##estic
sav
mac
##rim
exerc
annual
runs
##ador
jersey
##rant
tay
spanish
estimated
ts
##iring
concern
##rants
##arm
destroy
window
ker
##wide
finding
##vent
##ano
##ider
absolutely
enforcement
##asts
bull
ruled
freedom
younger
eastern
christian
traditional
nom
murray
voice
unp
38
romney
suspic
upon
singer
birthday
##imately
cath
tests
cry
pregnant
origin
##gu
qaeda
##ielder
commer
42
dram
ceremony
propos
nature
boyfriend
lic
attended
terr
scen
chic
practice
beginning
unit
estate
##kins
##imum
blog
##ector
protection
answer
views
employees
politic
addition
crack
fab
flat
laugh
items
##utch
bob
hen
##arily
##isions
2004
pool
faced
voters
decade
bost
controversial
meth
##light
ebola
growth
increased
terrorist
##ym
spokeswoman
mort
recomm
##fielder
hurt
##do
tel
entertain
powerful
kh
youth
ali
##ula
##uf
coal
actress
analy
visitors
value
exactly
dun
tra
dub
spotted
bottom
fish
sort
severe
alive
midfielder
ign
sound
##anch
joe
sheriff
##mond
parties
##cing
##ae
##iser
sources
lake
responsibility
##ume
conflict
##erved
profile
desper
##igan
crimes
boston
##ropriate
spar
haven
physical
keeping
visited
kate
##ulted
##keep
mans
text
rail
occurred
behaviour
wheel
##dy
negot
rh
highly
##kes
suspended
48
confident
spect
##omatic
##here
learned
vice
mum
fraud
regime
watched
remained
controll
determined
grab
matt
doubt
complex
traged
worse
opinion
##iber
eld
partners
agreement
clar
##ette
£5
pounds
serving
pilot
##entially
hoping
holl
liby
via
diet
purch
assistant
developed
##icop
drinking
seeking
expert
cities
##ointed
favor
missed
democrats
##ius
fuel
argu
##any
cool
purp
##eds
##bury
##cious
programme
##atures
##aries
##ighter
tournament
meaning
channel
worker
spring
banned
authority
prepared
##antly
pray
proced
attempted
foundation
pleaded
mike
lines
##eme
comple
domestic
mig
dramatic
science
governor
suspected
kent
regul
protests
picked
simple
nice
multiple
neck
##ched
suprem
##ously
shirt
ronald
bon
shocked
tweeted
circum
brook
##oe
44
mile
horse
brad
##castle
ruling
##cy
##icate
##ledge
##uals
hero
taylor
sudden
43
jord
ven
##gar
separate
resign
##osh
weigh
required
management
divor
wealth
breaking
tragic
pup
ii
corpor
flow
measures
sus
finish
editor
note
artist
colour
owned
push
kat
##house
ocean
##ican
scandal
newcastle
helicop
seconds
inquir
subject
paying
drop
uncle
prosecutor
##ani
##ampton
##ella
##agues
##alys
organis
tack
dismiss
credit
##rect
various
investigating
##illing
insurance
coff
loan
39
recovery
duty
journey
batter
wilson
amid
location
ireland
##sex
##ographer
apart
plant
##itude
47
tragedy
haw
equal
serve
fant
korean
##apt
nurs
israeli
##itation
books
ward
##ennis
gives
##gus
cart
purs
writing
moham
express
alb
ray
wake
command
language
bin
finished
threatened
activity
standards
##ela
55
##ols
seriously
navy
##inho
##iot
chemical
##wich
##board
danc
tun
warm
##acts
article
afford
##ighted
file
400
rule
confidence
jam
vehicles
belong
sarah
clothes
stories
emotional
ble
medic
silver
angry
unus
defender
volunte
41
##ading
require
fears
ambul
##rupt
memorial
sites
##asc
drag
ess
victoria
tree
inspired
religious
tony
setting
counts
legs
stuff
equip
£6
fifth
electric
lawyers
heat
46
witnesses
toward
trouble
length
expensive
videos
turkey
faith
outr
##enty
194
ther
##ota
hug
comed
ly
195
leadership
08
kil
reading
##tenham
escape
stands
trail
advice
##ustr
dinner
politics
guests
scoring
##oles
except
surface
benefit
cabin
hollywood
stret
chicago
##ushing
agent
##encies
##kshire
georgia
##athan
##hab
dipl
achieve
##bel
upset
critical
shopping
mountain
kidn
beauty
##izing
diagnosed
##fied
commerc
difference
##ware
adam
hunt
seek
anthony
2003
jordan
cuts
syn
ip
scheduled
drivers
register
##encing
##iana
illness
moments
boost
breast
##lying
##rison
palest
recorded
##eman
sympt
rates
funeral
49
simon
asp
##iban
ster
carolina
pac
primary
produced
##min
sides
##apy
equipment
cos
##iment
aband
##burg
et
kr
responded
taliban
##usion
##ilton
tory
surprise
obviously
##ein
##ortion
golf
stress
failure
steps
repeatedly
tens
impress
supreme
##know
photographs
score
declined
brothers
candidate
ell
standard
luxury
jet
stood
matches
remove
magn
jenn
##ologist
virginia
dressed
##arez
production
perm
airlines
resour
stick
iphone
dozens
struct
underw
colleagues
pra
willing
cra
circumst
obtain
acknow
suppl
mont
jeff
prosp
##onym
##omb
eric
innoc
##uge
proceed
##aling
quiet
##ulated
##ipe
uses
truck
##ification
commercial
52
##pper
kitch
mun
coc
worried
connection
limited
lucky
##outs
##ros
andy
celebrate
incredible
status
additional
occasion
##ruption
income
accounts
##resp
canada
pap
clubs
content
gaz
##utions
##ovic
changing
user
lewis
prove
bang
retired
offers
##va
carl
none
relatives
contest
yell
##ufact
surge
##mates
measure
manufact
photographer
gh
directly
hat
ded
aren
worry
##owed
unique
attract
##itely
saving
institute
nur
flu
plus
anc
ren
retail
##gen
anger
lie
##essive
##bon
declared
##icit
passenger
winds
gaal
struggling
##aine
temperatures
##oma
barb
overse
##igg
niger
##ulting
mps
audience
hay
feature
parent
lawsuit
pu
allowing
brut
cambridge
frequ
##cri
hasn
2001
systems
tan
verd
kevin
corner
supposed
ec
occup
##ached
machine
pin
targeted
banks
entered
turning
planet
shots
truth
kenned
tiny
critics
criticism
offering
whate
##iar
whatever
falling
rum
founder
gad
sust
nar
punch
princess
joint
yout
##cepted
plat
ambulance
ped
fergus
symptoms
elections
##anny
vul
climate
hid
##itting
secure
conclud
mouth
prost
returning
stephen
individuals
##sa
coron
generation
cham
scar
labor
##ids
domin
spirit
tottenham
09
deadly
suffer
##pping
province
carri
wing
extr
youtube
##berts
##olic
kir
moon
##time
jur
urged
##head
militants
initial
celebrity
##ta
maria
kelly
soldier
reaction
active
filled
mention
palestin
unfortun
##olen
holland
kennedy
necessary
unusual
favourite
##anced
establish
bringing
virus
devices
reduce
buildings
##ihad
reven
agree
everybody
forg
coalition
##itals
keen
session
oppon
sending
adults
07
sight
manh
unc
firef
confirm
overall
prosecution
flights
99
affect
effects
icon
neighbour
scale
altern
noted
ferguson
##ifying
agents
originally
ride
wounded
steven
gradu
##antage
houses
cow
circumstances
75
##erous
##cow
limit
grew
##oom
##billion
zeal
false
##mingham
fatal
tight
questioned
##aughters
chap
##ctions
receiving
master
signing
analys
weapon
kitchen
lind
plot
duch
acting
birmingham
completed
2002
introduced
##emen
2015
##ko
bell
roberts
##awn
involve
putin
nasa
feels
##kin
neighborhood
##aren
##ua
tall
consult
##ulate
auction
ford
cameras
fled
festival
contain
##aze
constitution
switch
06
involving
rising
ariz
##umn
slight
friendly
enjo
analyst
##ulf
terrorism
providing
##lets
weak
studies
condem
smoke
historic
##eing
##pay
threatening
increasingly
businesses
enjoyed
threats
lunch
54
##bl
debt
##apping
negoti
recru
southampton
morgan
##order
subs
decide
##iner
tast
yor
##icken
tribute
##ront
stolen
##ining
disaster
scottish
affairs
daughters
exercise
##20
roman
zim
housing
depart
regularly
activities
fighters
##ables
##idel
damaged
resort
japanese
##mother
guns
abc
matth
ceo
arizona
rough
joy
consp
51
##ales
##gas
2000
destroyed
53
heads
exchange
wine
hong
nut
acqu
edge
monit
facility
bes
##can
miller
saved
##iano
##anding
##abeth
lock
refuge
##keeper
backed
elder
inquiry
killer
spoken
##ova
eliz
jun
tea
revolution
lands
##da
epis
##lig
larger
soph
memory
adult
##illy
journalist
legend
##ipping
rival
##orted
pushed
option
suspects
nic
##makers
rooney
drunk
dating
babies
reco
presence
knife
teachers
sharp
funding
holds
vulner
designer
communities
gop
extreme
panel
surrounding
##elli
##more
duchess
sons
##inals
atm
experienced
influence
bigger
05
learning
##airs
nbc
yellow
failing
shape
stores
taxpay
leaves
150
##azi
welcome
##anged
pieces
villa
debut
split
located
chest
understood
raf
creating
correct
hamp
rug
complaint
models
##iat
##acked
alan
65
species
hell
section
suggests
##arrass
egg
plastic
##illa
busy
please
atlanta
drove
##aled
##works
##break
matthew
56
##atively
exhib
likes
embarrass
##ala
wore
potentially
struggle
##isa
kong
announcement
method
lying
tort
assad
policies
davis
##road
survived
zealand
wer
explain
ongoing
##west
exclus
##iami
annivers
diego
argentina
hugh
aston
knowledge
shocking
##orary
journalists
iv
closer
trig
route
produce
attempts
argued
gary
##icket
vast
##ule
hart
##sem
transform
miami
helicopter
easily
resources
##dd
allows
meat
olympics
write
happens
driven
complaints
bac
##ship
kiss
phones
broadcast
skills
treas
beaten
yorkshire
traum
rand
##ket
dna
##aham
mourinho
definitely
academy
lit
relax
embass
anniversary
##omes
gam
ko
##illance
contacted
legislation
sought
everton
vess
##iband
interested
##fe
punish
costa
anonym
belg
surveillance
focused
assess
awards
tears
advantage
subur
investment
bat
affil
colorado
accepted
decisions
##ios
saud
perman
unlik
determine
elizabeth
prin
evans
medal
prize
##mate
diam
effective
conversation
pope
miliband
react
jess
blow
##utation
sac
##orrow
forec
proved
ba
##ections
##etts
lights
compar
causes
unlikely
tum
##coming
astr
tomorrow
£7
##osure
happening
liter
tweet
##aph
jay
##otic
600
passion
##rial
##enders
map
identity
carr
letters
advoc
background
hole
dance
discovery
les
bern
veteran
object
beating
viewers
feder
possibility
scheme
passing
57
##anna
identify
waters
##acing
intended
operating
riv
remar
mostly
tru
fallen
##igue
abb
hospitals
staying
inquest
consequ
impl
ministers
visiting
crashed
hung
surprised
rushed
##achus
##egr
pad
haz
collaps
mistake
remark
plays
valley
mu
ticket
ohio
##wise
tells
marine
slam
numerous
immediate
grown
deeply
dutch
dim
findings
blame
##elt
recovered
bars
notice
rooms
earned
massachus
tennis
acknowled
iraqi
##ivity
massachusetts
##under
choose
##ijing
verdict
atmosp
suarez
##abor
lots
suc
construction
trained
hod
direction
beijing
greatest
headed
##usted
portug
##fast
anderson
rebels
desperate
nobody
kur
##dom
dollars
ronaldo
##life
##uana
evac
behavior
rat
empt
featured
conducted
travelling
indeed
tourists
fought
blind
murdered
##andez
log
moscow
publicly
##ocol
smaller
testing
##ifer
##istr
relief
##istol
heading
bound
politicians
rejected
nurse
forest
raising
celebrates
unve
gathered
pled
91
py
household
##ijuana
proposed
encoun
swed
##otten
grandmother
landing
airline
dj
consist
developing
##sters
client
distance
##worth
grant
cole
800
sparked
harris
combat
##osis
films
##town
knowing
calm
sexually
##neys
chances
yard
##bourne
inches
##eline
lor
ambass
58
cock
lane
larg
metal
possibly
honest
ian
delivered
torn
gain
activists
stunning
##agram
##ques
virt
withdr
widely
##har
native
deploy
##attan
zone
##rie
buying
##agers
options
unless
entertainment
£8
dry
acts
presented
stuck
considering
candidates
performed
##onic
michelle
neither
privacy
struggled
prec
hamilton
click
windows
challenges
henry
cards
personnel
stayed
coverage
04
noticed
painting
largely
pink
pub
devastated
saudi
vulnerable
##rah
incidents
beck
lev
compens
somebody
prefer
imagine
tech
allen
roof
todd
guys
golden
surviv
adj
refere
##eland
193
imposs
##lad
jac
##ran
cells
manhattan
##igar
trick
abu
basis
marks
factor
employee
##ouri
funds
rene
trigger
##ography
da
cruc
brutal
supported
heavily
robber
distrib
tend
excited
##attle
teenage
rig
##isher
tradition
##een
worldwide
##ophy
princip
scenes
promised
divorce
phill
shad
porn
##mes
trees
##fall
code
fifa
distr
marc
marijuana
swimming
elected
detectives
semi
woods
##olk
clothing
controversy
plenty
francisco
roads
shoes
ultimately
forget
chain
##quar
##lished
##agon
cate
jihad
##mad
yourself
##ington
##father
embassy
impressive
established
hate
##iated
courts
##fit
libya
sterling
recall
lanc
##ita
fo
belief
##wart
##bling
##oft
coffee
59
commissioner
possession
agencies
strategy
##rep
hoped
wonderful
seats
##bell
accomp
duke
##izes
weren
restrict
humans
helps
gym
##win
accus
alexander
impossible
##essions
bathroom
brian
retire
##iform
honor
detective
##umped
thrown
dur
2016
cutting
##oured
vital
racing
mate
remaining
##oses
##whel
asia
resist
charlie
motiv
pension
##ization
##estyle
instagram
##itzer
disorder
ib
buried
controlled
gov
supporting
##ounced
mars
filmed
islands
marsh
abandoned
properly
landed
extraord
##rian
offences
discip
talent
##borne
cryst
##ounted
##ective
resol
terrorists
ross
##oster
vent
##osing
isol
supply
blamed
##ece
##azy
dismissed
##omet
##agger
tam
civilians
listed
mexican
tie
magistr
outrage
##iracy
##okes
milan
approved
terrible
az
suddenly
parking
wayne
investigate
truly
pointed
electron
swan
##enses
uniform
nfl
##known
##reek
##mail
doors
sharing
pupils
goalkeeper
division
josh
messi
##inct
bills
tonight
sweet
copy
jane
##anded
album
prisoners
oscar
internal
territ
##aks
drawn
digital
complained
trend
##istics
defendant
adds
##nam
##ucks
##ulous
talked
##away
classic
capture
platform
thoughts
task
rick
##born
##weight
##inder
##pet
ambassador
tact
offensive
era
iranian
unn
horrific
appropriate
appoint
nato
##burgh
hou
infection
consumers
##met
novel
##stein
buck
enem
graham
##ogue
assistance
elsewhere
incredibly
reputation
spons
tested
##alf
##izz
mitch
overwhel
programs
##oli
canc
math
patrick
continuing
lav
##ordon
wrec
waste
exposed
symb
chose
smile
mcdon
bags
replaced
hidden
elderly
fern
jes
knee
##vania
diamond
drew
##iev
sugar
##employ
targets
tower
seized
##tha
250
na
astron
comfortable
dozen
walker
easier
leon
##ansas
strict
alt
categ
welf
unemploy
##rom
##wal
interests
normally
sty
aer
bottle
queens
cha
locked
integr
newly
disappeared
cricket
voted
bowl
##ellor
granted
pleas
cigar
##inent
tank
hull
rugby
commander
##syl
##aver
arrival
03
mothers
andre
gif
##lyn
malays
flash
canad
defending
grounds
breach
wave
pear
pennsyl
hern
referred
smoking
turk
kerry
##vis
stan
brill
somal
jason
lion
##icient
##acle
patter
negative
ancient
welfare
pig
string
mah
nose
regional
##hd
opinions
unknown
reduced
arrive
muslims
remote
environmental
joseph
pennsylvania
analysis
satis
rapid
ment
tickets
hitting
remarks
##aken
customer
liberal
balance
satell
basket
##icip
##opher
realised
rush
##stone
##hi
frustr
##ll
stabbed
cabinet
basic
watson
strang
intention
khan
##ingly
##iration
raid
clinic
##arre
##rees
highl
irish
closely
advent
wins
laid
##char
stepped
totally
iron
interv
height
thinks
couples
##abled
insist
distur
rivals
pock
flowers
thor
statements
pregnancy
pit
##aire
fitness
solution
vacc
sees
strikes
strip
argument
terry
concluded
independence
mut
discrim
jr
notes
chanc
conviction
atmosphere
outbreak
##eld
##acity
chat
awarded
dir
embr
tied
solar
explosion
gear
##nell
risks
##east
jonathan
dish
survive
empty
abroad
tail
stom
rein
##eding
veterans
vegas
greg
slightly
corruption
gulf
mol
concent
toil
vision
innocent
usa
supermark
fantastic
##erves
listen
mall
powers
bench
fake
##ctv
rice
##fire
##rell
##inations
lov
wildlife
oxford
stomach
lies
surrounded
episode
coroner
bron
unfortunately
knock
prompted
orange
edward
collapsed
flew
gon
##uated
revel
santa
zoo
##icester
understanding
medicine
##ias
ashley
recon
judges
myst
inch
core
software
sin
deliber
dealing
communications
##ouch
earn
approached
replied
palestinian
prest
houston
00
neighbours
sporting
dol
pose
##itan
##ila
##udd
##reh
bure
dy
patrol
firefighters
##mo
##wall
guar
hills
nich
deter
organisation
##ads
archit
##osen
ukip
kl
robinson
radical
anx
gaza
sanctions
naked
joining
senator
unclear
rif
encounter
otherwise
starts
encourage
##esty
searching
luis
testified
vig
sets
followers
extraordinary
drama
toy
moore
criticised
##inate
##war
indones
emma
##child
anton
##mon
##ira
leicester
##oting
grey
procedure
apprec
awa
##ien
enjoying
adopt
cctv
1999
accompan
appearances
alternative
hide
subsequ
badly
immigrants
enth
convention
##imp
pent
provides
lifestyle
testim
posed
hadn
arriving
strateg
cruise
fred
function
##elson
plea
dying
whit
##afi
christopher
predict
tackle
bureau
por
catholic
##lah
conce
feared
wash
harass
laden
chancellor
jennifer
craig
##ria
wenger
##allas
shr
pushing
cocaine
scared
interior
attacking
philipp
bayern
christie
michigan
iconic
reflect
solely
engaged
gordon
finger
##right
lung
rural
minimum
explains
relatively
chocol
prepare
700
theat
sleeping
zimmer
##nic
melbourne
ta
bike
tatt
grass
canadian
##bles
recalled
mine
proposal
##pson
##hal
favorite
##amples
depression
crystal
specialist
cia
gift
cleared
behalf
ted
milk
discl
##ishop
##upted
matters
##dog
remind
connected
rodgers
preparing
##icts
birds
decor
meal
brilliant
gap
permission
administr
marry
stretch
64
yemen
intent
fruit
invited
colomb
##mph
lift
##uties
jewish
wars
celebrities
leads
walls
thompson
casual
##iti
rocket
dedicated
##erted
aimed
sentencing
shouldn
mates
turns
barr
##standing
entirely
##apse
pakistani
##era
escaped
guide
apparent
moves
jamie
jumped
devastating
jere
##aved
##annah
anne
overseas
guarant
throw
ending
hughes
cul
biz
campbell
facilities
atlantic
##aska
threw
compensation
weekly
founded
##orders
summit
assem
##asted
##atherine
##enz
##ints
##ek
wim
recommend
##arch
spell
instruct
narrow
org
guards
theft
involvement
01
ski
element
##ja
obtained
rally
rio
sunn
childhood
therefore
hernandez
beer
permanent
mini
191
informed
lob
becomes
solid
detained
##itarian
replace
sisters
leeds
bash
interesting
referee
conspiracy
greece
chef
rodr
gib
##azz
jessica
##ports
ideas
documentary
chosen
headquar
reporting
drinks
sunder
##cia
##achel
essex
towns
loy
aven
automatic
accepting
£10
reaching
grave
diver
orders
familiar
##amin
danny
wides
wright
turkish
upper
formed
trapped
02
ay
##fying
waves
##ici
##odes
neil
territory
tip
consequences
shadow
investigated
euro
dispute
marked
maximum
##irates
commitment
veget
##raid
##vey
blast
shoulder
sixth
loud
suspicion
democracy
thin
##adel
##berry
initi
marath
packed
advance
sunderland
shares
racist
micros
philip
raped
jen
posting
fewer
jean
anywhere
concl
##eller
scores
cheap
perry
##ito
properties
knocked
dancing
bullet
blank
commons
stated
enr
disappearance
sector
pacific
##ucing
##pread
hampshire
shops
nigeria
aggressive
widespread
glam
presenter
fee
fame
##jo
disappointed
##care
notor
salt
dust
testimony
purpose
hors
variety
dave
1998
projects
qat
fighter
characters
diss
clark
delay
62
##antic
campus
gor
jimmy
crazy
loving
entit
bizarre
abused
laura
begins
implement
kicked
nap
scan
cream
cous
##icking
##rog
hunting
writer
capable
payments
sandy
profit
shift
promise
shelter
performing
reun
##mann
opportunities
inapp
asian
votes
mansion
adopted
dallas
describe
burst
highway
enthus
lt
afraid
admits
brid
commentary
surprising
teeth
metres
typically
ale
bone
robin
swansea
67
delighted
zimmerman
insists
overt
##oppers
inspector
affiliate
poison
follows
taxes
explo
profession
referring
##person
earning
extended
planes
honour
fu
clegg
##agan
compete
headquarters
apply
crucial
rangers
withdraw
##orous
vic
rescued
fill
capacity
pleased
bombing
generally
hillary
joke
ye
pover
ties
##inating
mystery
accom
ukrainian
intense
enorm
handle
##place
structure
burgl
unlike
abbott
brazilian
taste
branch
breakfast
burning
tag
egyptian
bristol
cruel
battery
missouri
rehab
congressional
##areness
attempting
overnight
##tle
##echan
gates
speaker
priority
resolution
awareness
##umed
##wa
investigations
unw
##bledon
magistrates
hurr
judg
##oker
serge
poverty
consumer
##acks
kay
officially
chocolate
sed
stoke
wimbledon
##hone
oklah
66
anna
yards
athletes
dubbed
accompl
rar
taught
sevent
##itage
shell
##esc
existing
offence
caps
blair
##asy
trafford
amazon
##alling
habit
reward
##mers
temperature
reveals
innov
anybody
attending
defended
firms
governments
demanding
ast
cultural
colon
##olas
regarding
frame
loves
wounds
justin
studio
##apes
funny
edwards
72
lan
cro
alert
##ls
demanded
##see
recording
desire
advis
arrests
libr
exclusive
unveiled
columb
loyal
hyp
pound
apology
rolling
mitchell
cher
crying
rebel
infr
63
davies
oklahoma
##idelines
teaching
##rapped
bombs
label
routine
contained
##laim
lyn
describes
grandfather
mohammed
##iguez
travelled
mechan
ww
earthqu
##gow
exciting
motion
acknowledged
clock
punishment
indic
unex
##itis
teenagers
telep
nad
factory
grace
promote
carbon
guest
demands
luke
interviewed
links
pier
kilomet
basketball
stem
formula
strange
excell
harv
trophy
restaurants
##inn
jurors
sounds
pist
shout
sits
##agement
exception
hanging
comedy
effectively
marathon
##gun
sean
auth
fault
pace
carter
ade
spokesperson
robbery
transportation
warrant
cbs
##etime
opponents
clients
portra
rodriguez
##rard
##oln
##ardo
registered
##minster
stewart
movies
mood
plain
68
##ora
castle
mirror
appointed
hopefully
riding
bru
wire
fees
featuring
fortun
democrat
combined
edin
bik
celebration
gab
industrial
crowds
##iders
improved
pill
checks
regret
##phia
rent
afterwards
##inois
temporary
foster
wolf
formal
delivery
##water
##ologists
genu
osborne
pm
gate
prompt
multi
bruce
911
hodg
##greg
##ema
linc
execution
prostit
barely
horror
wreck
##oard
locations
cardiff
paramed
collected
coord
satellite
quit
aside
##athy
tourist
globe
eleph
##enda
##adelphia
disney
gross
jeremy
##respond
##gent
hired
##inez
architect
##bly
##mouth
correspond
illinois
nico
unac
russell
volunteers
lib
accur
##aring
froz
plants
goods
markets
advertising
observ
##rance
gil
closing
applied
theory
mam
amanda
bloom
philadelphia
gill
poses
##ateful
chicken
kingdom
diplomatic
##wick
##aid
usual
falls
##de
constant
lisa
sib
grade
voting
##crib
transpl
thick
heath
civilian
##rest
1997
deals
galax
divers
gained
nig
taxi
types
gender
succeed
liqu
representatives
##burn
ups
diab
##gio
##icut
tries
glas
papers
stu
puts
neighbors
application
##ucky
screaming
crews
convin
ipad
lincoln
##rene
mixed
winners
producer
##die
##ray
concept
##ucking
##uts
substant
cable
contrast
gerrard
celebrated
transl
writes
kenn
stronger
alab
finals
vessel
rab
spin
brave
sne
taxpayers
##igned
occasions
allies
pump
traveling
chee
##dale
killings
memories
ingr
85
technical
convinced
posts
positions
cats
fiance
##lers
##och
chamber
crist
burned
shark
amy
##owned
celt
creative
fasc
booked
hiding
zero
shame
gent
thro
worn
77
conver
##boy
partnership
petition
brooklyn
appearing
slowly
breathing
locals
experiences
##otte
connecticut
package
pip
##ommod
spectac
martinez
##ears
brom
##arth
monitor
rav
requires
accommod
detailed
organizations
##enez
ech
facts
slo
##pe
remarkable
gest
bart
represents
marketing
supplies
tent
landsc
criminals
ferr
speculation
counsel
aboard
##tery
entry
lap
drone
manufactur
manner
suggesting
confront
##uous
##esco
hotels
values
##ropol
##phones
##roid
forever
obvious
tracks
##issions
toll
manage
##ci
seattle
relationships
classes
##ashing
adams
burns
tab
striking
hawai
ramp
meals
barri
aviation
61
degrees
balls
wealthy
firing
representative
youngest
baghd
##vens
pc
westminster
mccain
inspiration
neur
ethnic
encouraged
suspicious
##ders
ak
minority
##ality
##ctic
margar
##ache
inappropriate
settlement
meetings
desert
citizen
gene
celebrating
munich
approval
infected
tox
entering
baseball
tape
calc
advised
artists
##attered
foods
condemned
heritage
cloud
substit
ends
alabama
appe
religion
fisher
emph
nerv
##point
hob
aar
hits
personally
derby
accusations
resulted
##otherapy
hag
glad
cancel
##cedes
homeless
susan
unh
flooding
kit
twin
snap
debr
throwing
walks
welcom
attached
belgium
##gt
keeps
successfully
attracted
essential
##rod
attorneys
bent
button
dor
dict
dele
£9
cord
avo
crossing
##owa
mario
approx
employment
interviews
1980s
symp
visits
describing
trium
##box
##erate
dece
acted
apps
lawmakers
negotiations
eve
##endum
urban
baghdad
roger
mack
vet
albert
##itable
chase
leban
celtic
griff
gian
downing
##usal
ordeal
cited
sensitive
utah
##uster
ridic
checked
amp
bitter
##usive
specifically
##bie
anticip
anonymous
forens
cliff
slim
ug
##ded
praised
peaceful
portugal
##yes
outcome
nov
filming
debris
triumph
ages
switzer
patri
##aco
referendum
##tt
##mitted
searched
enormous
denies
enh
holder
peak
scientific
##acement
##uits
##fa
duncan
proof
##usting
harder
##aware
importance
smugg
##icane
##vant
howard
##iable
##ima
interp
hurricane
racial
1990s
switzerland
glasgow
liked
humanitarian
strongly
##idays
courage
materials
##ighth
viet
horses
indicated
containing
significantly
guess
toilet
probe
opposite
dyn
rome
sho
roughly
monitoring
cav
##ando
opposed
protected
##lan
##ictions
appeals
##cling
emails
##cles
oldest
metropol
cope
everywhere
advanced
##airo
hiv
procedures
electricity
hodgson
##uls
funded
##endent
tensions
invas
garcia
cuba
obser
lamp
visible
managing
1970s
mountains
diplom
78
dod
##aft
medication
conscious
spectacular
bos
gray
colleague
##lings
##aya
conservatives
stable
frag
repair
detention
grabbed
fundra
titles
escal
persu
rot
bosses
reforms
lean
rever
stamp
##yard
iowa
blocked
fortune
##oded
select
lod
##ailand
##borough
stations
snowden
sams
nurses
proceedings
wet
disg
predicted
legit
thailand
statistics
fishing
ny
##maker
answers
estimates
cornwall
gunman
entitled
##omy
frozen
mull
expecting
cert
collapse
covering
notting
networks
katie
therapy
craw
teens
homeland
ships
gp
soccer
##iac
brings
drawing
edinburgh
95
swift
mete
personality
cin
accompanied
##esa
1996
interact
grav
arrang
amend
deny
hosts
speaks
pride
dial
disgr
faster
revenue
collins
owns
69
extensive
flames
stuart
balot
pod
deem
purchase
skull
units
boxing
##omen
offices
seed
##iatric
prospect
unco
##aving
requests
stages
anch
contains
competitive
pilots
toler
balotelli
factors
paint
belt
witnessed
sheff
##pan
##ellers
192
constantly
trips
pron
chronic
representing
tiger
trains
sustained
samsung
shaw
comprom
##ois
##ilst
renew
disabled
ank
furious
discussed
vowed
##phy
represented
##pass
songs
phillips
73
74
lovely
##orse
buff
mcdonald
assass
pard
regulations
tired
prohib
bub
citing
##certain
##bar
bears
riot
confron
1994
dubai
waited
painful
scor
hearts
wound
##loaded
syndr
bacter
mud
£100
sheffield
activist
sail
##strong
pulling
knight
missile
##ulations
##uay
morris
rebu
underground
lin
reception
beckham
##ails
studying
bund
actual
handling
kenya
junior
##wr
twins
operate
furn
error
sudan
discussion
typical
arts
syndrome
outs
communication
impressed
equival
rah
tu
cu
managers
##umes
approximately
centers
err
polls
assaulted
argue
begun
##ikh
##oop
ourselves
retirement
##ture
swiss
transferred
survivors
cycl
shed
elim
freez
electr
##etch
survival
nelson
exhibition
cd
amounts
adviser
##ni
finance
lifted
migrants
margaret
computers
bot
##wan
stal
chile
##uations
odds
hood
lessons
achieved
qpr
ry
symbol
aaron
##cott
dean
grateful
whist
selection
bones
##math
##asters
hamas
reid
##ecca
##gate
abortion
dressing
extent
maryland
warren
mercedes
sanch
prevention
##rets
whilst
blaze
telegr
barbara
armstrong
greek
directed
hend
##acking
arena
somewhere
touched
arabia
forms
sgt
castro
pages
##ario
##ensions
##atched
arth
obst
electronic
##che
nervous
##rence
pel
helen
va
lifetime
objects
barcl
holidays
cheer
##ami
fing
##how
torture
vinc
demonstrators
ky
admit
sanchez
##ructure
analysts
##load
physically
wels
##rated
frequently
mandela
stroke
optim
itv
sink
supermarket
trading
races
mainly
elite
eggs
charlotte
nin
atlet
discrimination
##cr
boots
kurd
silence
headlines
berlin
warn
1995
garage
bun
avenue
microsoft
rarely
exit
sov
legacy
juan
##icial
highlight
##etes
library
attitude
consultant
shore
##roit
equivalent
overs
telephone
enemy
traveled
picking
restrictions
indict
##rete
gallery
welsh
lig
##uting
noise
##shot
##children
fier
mcl
tweets
shield
##ooth
disag
settle
nickn
reference
fright
unemployment
popularity
relative
concert
footballer
absence
rib
imprison
magic
announce
smartphone
##ati
investors
##lined
midfield
ax
##cript
hey
ps
posing
graduate
seasons
##iece
##lessly
warnings
clarke
metropolitan
##iro
circuit
##bul
alarm
beneath
##tr
smashed
##etta
##arms
detroit
bug
malaysia
##gage
stealing
delayed
earthquake
atletico
brew
backing
unfair
rounds
rachel
sequ
##lb
aftermath
outfit
militant
distress
steel
dreams
##estone
gut
perfectly
feelings
painted
butt
excellent
nights
recovering
##enging
donations
tourism
branded
fi
horn
plate
##real
addressed
phen
lip
pure
instru
resigned
engineer
welcomed
cheese
websites
rocks
poland
##abilities
businessman
##ilit
overwhelming
infrast
##urally
safely
reads
ald
71
smell
salv
stunned
forcing
pentagon
bailey
intens
honey
midlands
galaxy
baker
intim
chaos
seal
##ippi
conced
pupp
mug
##low
butter
##athers
##otyp
nationwide
targeting
combination
emily
destination
participants
##itors
##uable
nottingham
rely
agu
inher
inmates
stole
dang
payment
##regon
nazi
reck
rivers
tsar
oregon
auto
fields
dawn
spark
raw
clip
##isation
keith
throat
rear
##nd
fract
gro
carefully
lawrence
cafe
entrance
massac
##ument
islamist
ordinary
realized
hook
jesus
crossed
probation
##uters
lloy
treating
£20
tiss
mississ
surrey
salary
tattoo
rank
##orage
bottles
reass
##enson
infrastructure
sweep
flown
viewed
shoppers
bullying
treasury
biden
76
##ato
challenging
clashes
tennes
jong
hawaii
vigil
fitted
##chi
explor
mistakes
autumn
louisiana
ingred
##icing
##aws
refugees
trace
recommended
paramedics
##essing
dates
residence
wol
controls
##case
##cot
dollar
##chair
pere
stup
tool
odd
imposed
##stri
donald
lowest
corporation
hammer
encouraging
meteor
lon
ark
designs
regions
intervention
uncertain
hip
wy
##encer
sweden
quoted
singing
oliver
mississippi
unexp
jacket
##ported
category
resem
parade
latin
##hy
dougl
destruction
minnes
oblig
##bits
prol
spurs
camps
kansas
collision
louise
appointment
carn
photographed
deployed
##oral
practices
oxy
##heim
##iences
parked
devon
instance
cyber
bucking
gathering
defensive
institution
oak
grim
employed
performances
austin
license
protecting
infant
krist
trem
unexpected
##ettes
tools
##ustration
offenders
shif
clay
hunter
##stre
bread
qatar
obes
promotion
initiative
prominent
literally
##bag
minnesota
##idency
principal
##nie
outstanding
guardian
##aping
roles
##rus
##elet
cousin
departure
##walk
murphy
remembered
recruit
forensic
deserve
realise
experiment
hosted
yach
transplant
obesity
##ierra
barry
questioning
indonesia
##apper
toys
##iture
regardless
vs
nether
organised
##kyo
somalia
wrapped
thatcher
obam
seventh
decline
finds
##cription
##pts
##pro
licence
broadc
politician
barclays
##lec
choices
savile
##bow
kidnapping
assets
##beat
breaks
soviet
criticized
borders
##yer
##orius
basically
settled
corporate
alaska
guidelines
ultimate
tokyo
bloody
deemed
tips
brend
engineering
##ahl
120
gardens
##look
sadd
tennessee
diabetes
pole
vlad
exposure
##abis
somers
petr
##uz
explan
unaccept
forb
fleet
wool
parks
aggrav
emphas
leaked
pelle
nigel
##oir
youngsters
muscle
hacking
mentioned
buckingham
studied
sustain
executed
pistorius
colombia
1992
collabor
illegally
holy
treatments
separated
hazard
toxic
##oen
nev
column
swing
pocket
##star
passport
telegraph
hind
smiling
gentle
pending
scul
##din
##mund
han
print
corp
fined
eval
thorough
smiles
##km
prayers
brun
urug
ri
outdo
venez
battling
stevens
enthusi
selected
assessment
entrep
##mans
##iques
##amo
gadh
##hill
sierra
carries
uruguay
inspect
##abe
##guard
defendants
##umber
1993
compound
##issa
dominated
trafficking
feeding
spy
soil
##ylum
bishop
coat
##nity
##oko
airports
increases
hub
##uan
relie
confessed
britons
ahmed
barn
entreprene
##rate
midnight
clinical
asylum
theme
roma
benn
misc
proposals
powered
shirts
venezuel
soul
sony
cannabis
ignored
beloved
troubled
##ointing
isolated
nba
radar
uncons
android
holmes
forth
involves
##stan
herald
lucy
gadhafi
impression
admitting
upcoming
musical
agenda
cosm
##ullah
harassment
dug
libyan
cycle
lover
diana
corps
##xual
##olds
powell
vit
transpar
letting
protective
persp
www
##ili
engagement
##veland
##working
darren
grap
pursue
fiction
##wealth
unacceptable
legally
blond
maintained
returns
notorious
##eem
purchased
transition
stressed
venue
antonio
anymore
commonwealth
rebecca
netherlands
courtroom
genetic
rou
reign
surgeon
limits
douglas
dise
82
astronaut
suburb
theatre
spencer
rover
stupid
sentences
##ello
caution
sha
stopping
lions
fires
cake
##isan
producing
congrat
opponent
##mm
concrete
bever
occur
federer
mcil
burnley
yan
elements
physic
bris
knox
desk
revealing
##bley
##agne
liquid
dick
archae
guid
comedian
boats
moyes
##hner
wanting
pronounced
boom
##apers
viral
berg
reserve
donated
sussex
kentucky
dragged
murders
stim
campaigns
qc
illustr
stagger
kyle
youngster
hopeful
sque
extend
##ums
dischar
denver
thir
machines
careful
hannah
##otions
distinct
vacation
lun
simpson
manuel
prix
diagnosis
shall
spac
farmers
everyday
30pm
daw
ideal
1990
##endous
frustrated
£50
compreh
seas
screening
requested
install
julie
mitt
bradley
cleveland
schedule
climb
resulting
pic
cem
rifle
mamm
brendan
tesco
dropping
##bean
##apore
##rov
finishing
volunteer
overcome
cens
##ione
fol
extrad
sacri
sut
whis
alliance
boeing
##bian
##ancing
##naev
ranked
parker
sportsmail
reserved
singapore
##inely
caring
elev
paed
##mb
fate
dock
tsarnaev
##appy
savings
giants
dign
joh
profits
exha
grief
explosive
##imir
horrible
nancy
actors
bour
##mare
boe
ease
boxes
empire
engineers
scrut
romantic
sessions
patch
##oons
##ucker
eag
signal
replacement
historical
healthcare
downtown
championships
brands
fabric
sacked
tong
##asty
turner
conservation
ney
talented
indiana
substance
fence
valuable
##itated
cooking
landscape
outp
wider
carib
fare
creation
##opsy
jumping
mcilroy
ivan
##oos
##kel
athlete
lauren
voc
chan
##ii
##jan
siblings
dear
dale
##ht
##ussels
borrow
operated
vietnam
##rd
shaped
gifts
##ulating
unpre
wage
1960s
handful
trials
oz
##ixon
harsh
somehow
ruth
hollande
##lie
graphic
tamp
realize
cape
delays
toddler
tablet
secured
improving
kurdish
unpreced
deport
random
unprecedented
listening
portrait
myster
examination
stam
addiction
calories
saint
##opez
recognition
cass
##eno
remo
consistent
piz
terrified
bm
felony
discussions
intimid
##reen
nightmare
invasion
remem
detain
##atican
differences
##bac
##emic
swept
bride
blocks
##hall
sue
bleeding
foul
dealt
neymar
minim
kab
stafford
theater
tories
parliamentary
unconscious
mansl
##lu
facial
hud
promising
vatican
shake
polar
winger
lag
hardly
panic
##li
boot
engage
runner
classroom
diseases
##bey
heroin
micro
manslaughter
institutions
wooden
conversations
catherine
explosives
##umm
##olved
recre
emirates
heroes
wisc
wem
evil
seemingly
##icy
agric
assembly
recip
##onsin
##onia
sophie
nevada
84
indec
claire
pledged
generations
passes
##club
kilometers
vib
catal
brady
##isons
##oning
starring
##ouring
##uten
laughing
oliv
genuine
ric
##gb
loose
terminal
depth
constitutional
##armed
pointing
trauma
oxygen
flex
airstri
##lett
reasonable
tribun
sergeant
agricult
##tershire
maur
##stream
wisconsin
hostage
ori
##iveness
anxiety
deficit
dresses
dw
3d
kirk
cad
bite
runway
undergo
##unction
competing
arguing
dolph
awful
##aba
schol
mosque
massacre
responding
plun
intensive
refusing
aims
inner
##otes
brooks
rapidly
methods
wembley
gps
##ested
difficulties
holes
ine
affects
homicide
##ructed
gram
bou
keeper
underwent
hond
nathan
naturally
monaco
urging
chiefs
##pa
affordable
judgment
examined
conclusion
launching
garner
gig
fulf
bald
##ares
convictions
owen
##ashire
relaxed
elig
equally
1989
boasts
stream
damages
boehner
##ses
79
##rent
covers
dal
arrives
brussels
racism
lancashire
helm
incor
maid
terrifying
##rick
caribbean
1991
bacteria
##bish
##tv
exter
triggered
##antha
disturbing
cott
buzz
grie
brig
kath
paraly
sized
nightclub
suspension
nutr
confronted
robot
##erg
skir
gotten
samples
expenses
severely
organized
##itious
parole
executives
leather
beth
angela
lut
##icked
phoen
demonstrations
##dles
##emor
wheelchair
carlos
elementary
kidnapped
cdc
celebrations
weighed
88
currency
##ardy
##uate
prisoner
##stairs
smooth
joan
cease
##outed
challenged
##aux
craft
ferrari
tactics
vladimir
mit
storms
movements
edition
whistle
respected
##iverse
complicated
cleaning
amendment
##amental
flav
brighton
sie
orle
circle
##illo
wrest
utter
bold
temple
storage
jets
recession
ranks
widow
tube
stops
##ivan
explaining
##ahu
##lee
amn
nursing
slammed
overd
jav
dirty
81
queensland
colours
excess
lasted
technique
trop
fert
aggravated
clever
balt
buyers
caroline
pizza
##aki
conte
bale
larry
sadly
cz
##okovic
samantha
marie
£12
lambert
substantial
stones
sergio
depos
##oa
forgotten
stake
##sen
fried
##vet
prestig
orleans
promises
benj
penins
djokovic
applications
##leep
privile
maps
sculpt
mick
##30
damaging
shouting
jar
uncom
phoenix
bust
fixed
bobby
pets
expand
explanation
##ockey
guine
##rahim
negle
repeat
lopez
##aga
descri
champagne
aids
shan
tribunal
##ucc
watches
briefly
persie
##acare
sab
20th
continent
##mun
rolled
readers
##ographic
scientist
naval
universe
banking
nicole
uncovered
boun
lank
southwest
desperately
extremists
fundamental
firearms
fool
mock
federation
somerset
spots
emerging
echo
obamacare
fingers
experim
meters
prevented
highlights
anfield
haul
poster
superv
##esth
##lington
gonz
asks
sole
ladies
merc
lengthy
woke
disappointing
##oria
conven
cot
sod
eighth
communist
cruz
asleep
dil
adapt
indicate
peninsula
wishes
apologised
resignation
hans
contam
northeast
grandchildren
##zan
necessarily
stunt
forecast
bolton
##eta
tracking
bra
euros
nowhere
expectations
situations
palm
trainer
norway
sull
tissue
cairo
philippines
5million
vincent
perez
taxpayer
900
sri
lethal
£30
dramatically
##lock
motivated
sara
##bab
longest
restrain
cant
answered
lined
##yang
capit
pharm
masters
dumped
accidentally
##lbs
##cts
##girl
hitler
glasses
mph
publish
ranging
medals
spray
climbing
duo
haiti
shootings
gem
railway
sic
duties
rises
techniques
percentage
fairly
##opes
87
joked
tone
carpet
installed
##gie
perpet
wals
shower
evacuated
rip
columbia
##oping
bare
sham
86
gm
catching
webb
virtually
mentally
watchdog
##olis
quant
pattern
campaigners
eager
exploded
sophist
inev
shi
farage
teh
prelim
coastal
cemet
glou
openly
friendship
comparison
fernando
bah
tunnel
£15
ridiculous
##aches
displayed
##onduct
promoting
##oval
ditch
lump
spotlight
deleg
lebanon
polish
elabor
employers
##identified
crackdown
##erity
divorced
dining
nomine
athletic
cigarettes
##efa
cristiano
epid
newspapers
cemetery
proven
resolve
deterior
explore
perspective
beard
liberty
##avery
presidency
carrier
19th
shah
infam
arguments
##kinson
beef
tablets
anyway
reluct
natal
cycling
##auc
ahmad
deliberately
reserv
lapt
##beck
fever
strain
opens
flags
battles
unidentified
staggering
alf
rebuild
gir
benjamin
gown
##cover
##opa
qualified
underwater
accel
publication
radiation
amnesty
##encia
vaccine
fastest
palin
##iggs
preliminary
trump
ibrahim
uefa
##mary
##idi
signature
erupted
estimate
reducing
guarantee
ads
deadline
bombings
liz
stephan
sandwich
##shine
frustration
wreckage
cancelled
suv
##owski
punched
lloyd
thri
airways
operator
freezing
navig
appreciate
gur
nsa
##ateur
orland
phase
mohamed
cosby
maker
rud
latter
##eley
recognize
spaces
losses
##idal
franch
190
closest
##ibilities
snapped
substitute
##asha
coinc
relevant
violation
##ogan
newborn
undert
jill
selfie
##ecraft
##awa
aired
supports
recognised
rating
superior
famously
regarded
heels
abbey
penalties
subsequently
councill
dement
kings
imper
divided
jews
##ws
prompting
endang
##rich
suffers
curt
bout
presents
virtual
heathrow
83
##enna
cheaper
unrest
middleton
ports
##ken
constitu
wis
ankle
accusing
ferdin
statue
calend
hi
tons
##astrop
exped
##aro
nik
julian
harvard
indictment
billy
tap
##hand
aunt
fisc
mub
##oga
networking
kinds
gren
thames
jewell
embarrassing
correspondent
praise
sunshine
valent
sponsors
draft
ferdinand
##giving
handc
autopsy
mors
legitimate
##ali
##step
bran
wages
steal
goodby
closure
attrib
cure
ku
##bane
recognise
##agen
touching
alerted
motorcy
flooded
ratings
##omed
burglary
##etown
highlighted
keys
gareth
slip
moral
sect
unions
wip
##wear
judicial
associate
jeans
psychological
satisf
misconduct
revenge
mortgage
guidance
pas
##lif
##gi
awaiting
restore
urgent
##aug
alexand
##force
abdul
miracle
absolute
expects
##eney
electrical
##ante
confused
strategic
##asp
stability
bomber
karen
ceiling
cathed
##arak
longtime
academic
fierce
attractive
##itar
##rington
petrol
acres
harrison
spirits
orlando
reduction
tobac
phr
silva
apologise
screens
coaches
##rett
##list
recognized
hij
##isy
consent
dangers
##idav
affidav
tropical
##ura
existence
submitted
##aa
spo
biological
yacht
tobacco
pione
politically
flower
festive
chambers
##zy
##70
##fish
alexis
consumption
jol
makers
##no
artific
##doch
bronze
nest
horiz
zh
motorists
menu
cockt
subsequent
furniture
##bia
30am
mh
handled
##onto
solve
hispan
partly
seg
participate
bump
lists
ze
backl
traumatic
charities
guinea
thus
##breaking
mason
foss
files
ally
arthur
horm
revelations
professionals
emotions
murdering
extremist
##ching
searches
##ghazi
barg
tub
tooth
reop
devoted
leaf
warming
northwest
adventure
bil
homose
benghazi
billionaire
##stration
eligible
monarch
producers
thousand
##ipper
formally
bry
murdoch
fitting
donor
arranged
##ettino
supporter
equality
mi
peters
announcing
travelers
lionel
##itement
dementia
hunger
capitol
bloomberg
ingredients
expans
missiles
proportion
##ogen
silent
ferry
jerry
vegetables
bullets
wo
##what
nadal
dat
minds
lesson
demonstration
##tered
disability
aerial
dump
relation
orch
surely
ecc
##ception
dispatch
forum
drum
##eryl
basement
quarters
ripped
slipped
avoided
diving
comic
kicking
nominated
qualifying
mask
##otti
bak
perce
moss
depend
removing
cooperation
ghost
duck
embrace
gran
surviving
nu
squeez
sued
boris
tehran
##osa
fiscal
##mine
##zh
##state
##front
##quate
prosecuting
peru
retailers
rated
disciplin
##isle
voices
robertson
##hr
sunni
hungry
##urned
spreading
tornado
nsw
antib
beaches
paedoph
delhi
depending
weighing
kidney
brisbane
cater
manip
somewhat
cathedral
pellegr
whenever
frequent
airpl
converted
xi
universities
uncomfort
subjected
attacker
context
handcuff
scri
ranking
##cao
hass
offender
update
##etti
arsene
toronto
chave
sealed
legendary
croat
serves
lets
chavez
dent
##othy
disappoint
catastrop
vessels
drones
blues
unnecess
pardew
##ras
missions
casey
##ye
halt
chemotherapy
centuries
undergoing
residential
preparation
au
##thr
portion
orbit
mubarak
##rayed
belgian
##ss
dors
trio
classified
seiz
resistance
kel
##kir
hailed
indication
##ules
unbel
iii
aster
cigarette
elephant
waist
charging
comeback
contracts
£500
lenn
##vere
bradford
##ji
satisfied
tm
##storm
bernard
czech
spare
introduce
cohen
loans
urge
improvement
swedish
dak
vanished
om
provision
insisting
invent
helicopters
ivory
consecut
blonde
valencia
slaughter
hostages
berry
gabri
twenty
hugely
sophisticated
pants
suits
cargo
130
glory
scratch
superint
reunited
##vy
ana
sheet
removal
delivering
cave
pellegrini
##het
unaware
meg
twist
##laimed
arctic
compass
rumours
##10
ov
burial
nomination
dennis
starred
dies
jewellery
##amic
shouted
accurate
communicate
automatically
chemicals
hed
##anor
travellers
roberto
barrier
thunder
visa
liberia
stir
floating
falcao
merkel
rosberg
##aza
dort
roots
stripped
##agu
uncon
photography
##rupted
##rae
universal
excessive
checking
whale
landmark
##bu
##erie
expression
publicity
blown
stabbing
##kg
18th
header
gadget
dortmund
##urst
modest
##olded
palestinians
instructions
glamorous
scrutiny
affidavit
generated
##akh
donate
educated
commonly
liv
useful
solo
##heimer
gi
disrupt
cob
determination
fantasy
tracked
attackers
croc
lasting
spacecraft
loaded
tributes
marg
lancaster
delight
unbeliev
ew
kiev
tipped
reagan
persist
shoe
governing
##uese
sweat
focusing
tumour
chip
prescription
customs
##neath
21st
lamb
printed
dated
stance
prestigious
interrog
bother
verm
commemor
bashar
portuguese
cuban
refugee
irr
decent
underneath
juvent
immune
rings
##roc
precious
astonishing
pensions
##atri
##iller
bie
ka
difficulty
preventing
amateur
lottery
scary
membership
thirds
juventus
upgr
billions
authent
##rin
arn
thai
##ingu
exceed
infections
##affe
calendar
flee
transformed
adrian
joshua
ske
blake
parish
cops
1986
underwear
casualties
pupil
lampard
uncomfortable
singh
palmer
patterns
peer
autom
researcher
achievement
popp
pyong
colin
violated
unfortunate
kas
spa
olds
shooter
essentially
jaw
##von
argentine
goodbye
countryside
mog
christine
assaulting
creatures
stamford
uploaded
beside
coma
constable
appealed
examine
worrying
1988
neph
unnamed
naz
rogers
risen
solic
fabreg
comprehensive
##ck
stark
disciplinary
equipped
##abad
backs
aguero
f1
##alo
##iere
shy
happiness
speeds
fabregas
audio
boo
moderate
revol
superintendent
wells
struggles
southeast
sullivan
inaug
elaborate
##ensed
barnes
tours
generous
demol
excitement
aide
index
organs
overweight
liga
92
decre
chad
fleeing
aj
1982
villages
ireport
prayer
explicit
maine
reckless
noting
deck
violations
infamous
thorn
##ika
ownership
##rous
warner
sid
chuck
balloon
reh
bankrupt
defeated
trailer
collecting
trucks
retreat
tai
##enko
compon
peterson
discussing
##zi
consecutive
acceptable
pyongyang
km
accidents
survivor
jokes
breed
purposes
manufacturers
lucas
ammun
jub
undercover
von
##eli
endured
wings
bieber
reed
commissioned
##umbled
wheels
##apolis
vand
leone
stepping
greeted
fights
cheek
marines
raises
pastor
engines
##ete
##sein
sang
spill
toure
##icious
##usalem
dv
##ords
thrilled
deciding
norman
jerusalem
henderson
##udes
tunis
establishment
ammunition
leak
lieuten
canceled
##zai
##onso
deputies
redkn
sacrif
alice
ware
£16
##ypd
shoulders
excuse
redknapp
relating
appealing
luk
frances
sheer
lem
##say
gesture
180
richardson
nash
tale
##cm
nypd
unhappy
##inge
groc
##ylan
lavish
sample
weird
suggestion
hs
wik
##ilia
condol
conceded
acid
fiancee
slept
distraught
heated
demonstrate
lobby
hut
australians
warri
christians
##folk
writ
##brid
qualify
beds
attraction
seb
rubbish
confidential
passionate
burden
carroll
skelet
nicholas
propag
neighboring
1984
abdullah
ing
deserved
bennett
barrel
passage
##fordshire
designers
viewing
innocence
brotherhood
contribution
unlaw
phenomen
##imore
##aven
mounted
humanity
##oric
manning
encl
##ilitation
griffith
signals
##lain
##di
pledge
deserves
millionaire
prescrib
rafael
##aint
supportive
grandpar
renowned
hem
fury
ft
stranded
pressed
##aria
estr
hometown
dialogue
filing
folks
nephew
hes
kos
##olo
displays
asteroid
trous
cared
##iang
potter
mend
happier
damasc
##pal
monster
doubled
bunch
conducting
description
separat
##cestershire
89
femin
suite
pir
rescu
respectively
surgeons
thigh
alien
alz
neut
copies
priest
##weather
lightning
solutions
titan
vom
attendance
ate
investigator
trek
instant
restored
premium
gol
dot
ki
alger
regulation
periods
coaching
certific
poly
restric
directors
obsc
laboratory
walsh
mck
damascus
gangs
heir
contribute
epic
hire
##aying
merch
safer
abusing
cox
battled
requirements
liam
tempor
corre
marshall
202
subway
developers
##kers
visual
grid
loun
##inging
sovere
sharks
sovereign
pornography
##asses
administer
washed
nerve
##agh
balcon
recalls
fines
presidents
convince
caption
£200
households
rehabilitation
ryder
opener
350
##rum
versions
indecent
len
samuel
inflation
andrea
merely
saints
inspire
fundraising
schoolgirl
provoc
enterpr
budd
smartphones
scam
snip
structures
##fc
linda
graves
hudson
temporarily
topped
timing
##ologies
demonstrated
durham
sturr
privately
anchor
dian
brush
harbour
arkansas
##lining
accommodation
##bro
bened
mast
vel
##eries
##feed
brick
muscles
jama
##once
guitar
lips
baron
mainten
embarrassed
outf
choosing
observed
suing
##inity
costing
tyler
integrity
abusive
##iley
snake
boarding
1980
advocates
norfolk
netany
approaching
##rising
shakes
allegation
creates
addressing
hosting
torres
philos
apologized
artificial
maintenance
nod
grandson
julia
tanks
##through
gunmen
mysterious
##awi
##80
myth
breathe
netanyahu
trim
rend
examples
##uded
juven
embar
climbed
tut
shor
instantly
obese
wears
advocate
kard
tib
stranger
lect
refuse
releg
motive
mills
harper
horrified
outdoor
##onies
sturridge
##active
airstrikes
farmer
enable
tang
##dam
handgun
mild
cups
beliefs
styles
spends
eleg
titled
monthly
enroll
##40
evolution
recy
considerable
stanley
phenomenon
alzheimer
breakthrough
ghana
##una
##ignment
fulham
enjoys
bip
baltimore
narr
habits
adoption
sinc
##haw
comet
opted
orph
gw
promoted
neglig
raping
confrontation
adver
10th
protein
cartoon
subjects
shep
##ippers
donors
renov
traditionally
relieved
stephanie
pave
tig
burger
speeding
##usions
##ructive
spider
samar
mul
##held
extension
broadcaster
##pit
influential
bian
##bus
surround
sark
reviews
tension
tray
##umbling
belonging
kardash
revers
disputed
nigerian
##net
receives
costume
cage
fatally
observers
96
ador
sufficient
creature
consideration
##vi
releasing
1979
stored
chant
thanksgiving
pills
lorry
pile
##cester
##ader
reject
jackie
sharon
£60
##aser
franchise
##iki
manufacturing
bp
eri
haram
similarly
texts
shaking
##rane
melissa
##ifies
intimate
lieutenant
grandparents
emissions
kam
##teen
casino
##omin
practical
instrument
swall
ensuring
blew
keane
##ener
denmark
hugo
rup
sympath
gast
yah
meets
burg
tsa
detected
rolls
helmet
wag
hav
ears
jeffrey
£25
##ozy
reverse
dc
chor
##ollah
##urring
borough
ic
pedest
paintings
dorset
##dan
expanded
adjust
staffordshire
##oca
impose
mccon
bedrooms
blas
ot
##ouds
##isive
##ifications
tradem
occupied
scram
horr
140
distribution
venture
hague
greet
##iah
fond
thanked
##astern
aspects
defenders
scenario
spiritual
condemn
donation
admission
differently
connections
stere
confusion
wand
##stand
sheep
transported
homosexual
transcript
competitions
richards
anticipated
##reep
schum
formation
powder
hoff
jung
vick
straw
compromise
dylan
eddie
inspection
breasts
delta
testify
trusted
pollution
rapper
##fers
serial
##broken
##lon
harvey
citizenship
rage
ecu
93
##astian
telesc
yeah
scholars
permit
##eston
overlo
##respons
indo
mistaken
hacked
authors
##oni
recommendations
purple
behead
europa
sot
disgusting
nude
20s
assumed
educational
strangers
acceler
##rist
romance
dow
immigrant
hydr
ugly
tuc
glenn
rash
austria
##daughter
##umper
volume
triple
siege
nail
premature
steam
##ghai
wrist
wick
##fia
trash
bicy
wives
discipline
experiencing
##loe
tmz
rall
hayes
complications
datab
lau
councils
root
stairs
okay
cinema
thie
##usky
insight
lighting
##aka
fda
##iri
drives
pand
##eastern
ambitious
ignore
##antan
hussein
laser
councillor
kane
abducted
dame
wise
unnecessary
dread
ballot
rocky
suburban
bh
fib
chapter
steph
metre
boko
##urt
shanghai
ancest
si
matching
inspectors
icel
intelligent
belonged
zimbab
vint
crushed
gunshot
springs
trousers
##afted
zimbabwe
sew
subsid
astronom
peers
dup
acre
complaining
##uccess
tongue
compassion
cri
hm
##ogba
##jud
clouds
tsun
blacks
160
reviewed
principle
sensation
##eling
venezuela
cyp
voy
dispos
##alez
##ozone
98
interim
unsuccess
1950s
drunken
assisted
##gents
staged
##weg
ebay
preston
competitors
spani
##cano
nobel
perth
admir
understands
measured
spectators
occasionally
pleasure
propaganda
tul
examiner
preferred
ninth
secretly
sanct
medium
##anes
lungs
mayweather
committing
##iop
portray
reconst
punished
iceland
fc
##gal
mes
morrison
revolutionary
decorated
unbelievable
believing
##ista
lovers
norwich
##uctions
glob
karl
eurozone
secrets
oprah
humil
switched
##piece
enqu
shipping
policeman
##asia
hardest
kal
butler
appalling
flaw
rubber
ramsey
mahm
arrangements
depri
##enk
discharged
restricted
bam
outlets
franklin
rescuers
sheikh
reminder
##unted
bucket
steep
valued
enemies
johnn
##po
##gue
addresses
francois
shin
osama
routes
hyper
benedict
lanka
yo
commented
jenkins
shorts
stroll
developments
expansion
departments
neglect
blackpool
##arthy
isolation
submar
copyright
kabul
estranged
michel
sandusky
bonus
disappointment
heather
1987
chips
programmes
completing
unemployed
eaten
penny
occupy
gonna
sochi
prey
hin
gat
hollow
groom
skill
##watch
reyn
phillip
authentic
##onte
##dahl
resume
stormed
nicknamed
killers
stef
campaigning
ranch
katherine
steady
wigan
victorian
overwhelmed
clues
##mons
inclus
##ilder
welbeck
grip
ecuador
##abouts
rockets
mccarthy
cruelty
smash
cried
alonso
prepares
endangered
##feld
##iler
scout
amber
connor
gardner
laz
britt
raids
pleading
photographers
dakota
coul
##sky
##acc
handing
exchang
weighs
canal
teammates
nominee
##ridge
compos
##izer
jewel
reuters
farms
insurgents
##ugs
marriages
tribal
blanket
crocod
rosie
exceptional
xin
##uman
preserve
##aha
technologies
musician
vocal
chasing
contemp
khal
nicolas
principles
identification
##iao
kens
engaging
portland
pensioner
creek
chilling
fixture
##opard
contracted
dealer
superb
feedback
condolences
assum
nutrition
expense
assured
middles
irre
epidemic
rit
parad
scare
bass
sally
bearing
countless
breakdown
deeper
coloured
sexy
laptop
carney
bible
alv
##emouth
towers
##rating
lifting
monitored
entrepreneur
##earing
tampa
##rams
##ped
##aman
centres
##ranean
innovation
deer
realistic
bats
##bod
tin
stall
peng
##mith
chains
##col
hackers
organisations
frost
rented
neville
##unting
##ocated
affecting
tremendous
skies
vine
lindsay
##ouses
autism
salmon
bolt
antibiot
istan
rans
convert
senators
emerge
1985
destro
doubts
jacob
pursuit
elephants
ja
gradually
irs
concentration
##erk
topp
##qual
shutdown
istanbul
reflected
hospitalized
crashing
backlash
antar
##ulus
trends
gonzalez
stap
robb
disagre
bend
##sc
##thouse
##kley
chapman
lid
##eshire
##usc
ashes
fancy
##hurst
wallace
vicious
dignity
rut
secondary
bodily
##antanamo
sorts
wang
underway
detainees
drought
marco
postp
wilsh
guantanamo
vintage
southw
##yon
remorse
array
##yth
##power
placing
boast
renewed
wes
##adi
##uder
chart
gloves
clutch
valid
ellis
glimp
consistently
cottage
thieves
homeown
mainstream
strengthen
wardro
glimpse
11th
189
boxer
##opol
aber
efficient
dere
chin
libert
monument
wrongdo
medics
strongest
plum
##acey
denial
suggestions
malaysian
collective
coffin
sarkozy
rsp
tat
##enberg
nonpro
coleman
vary
buses
exclud
perceived
prosecuted
##itudes
sailing
primarily
imprisonment
tire
defined
cel
tougher
clo
poch
sweeping
nam
##gart
assume
administrative
teammate
planets
carriage
inmate
careers
alleges
partially
ruined
litter
##ussia
banning
travels
anonymity
manufacturer
earnings
balcony
reacted
pipp
##azed
fet
preced
supervis
strictly
tsunami
##arded
##mel
sob
##utt
##kson
theresa
deceased
internation
negotiate
graduated
specially
updates
inquiries
##roll
omar
##fare
posters
jumps
dimin
puppy
hispanic
bryan
blunt
assaults
dive
dash
immun
candy
benz
##omo
##etsk
midw
assassination
suitable
fug
gust
norweg
piet
filling
1981
sends
heaven
migration
proving
metro
laughed
kier
appla
awk
archb
distributed
gains
crimea
##iors
##iva
obsessed
##ecting
psychiatric
outfits
kardashian
pirates
##isha
##drop
jab
pam
adap
moroc
surprisingly
poured
stead
dolphins
zucker
chi
documented
awkward
shaba
publishing
guilt
remembers
cauc
##boat
generate
poul
##eness
jake
misd
cyn
dictator
matched
mant
reilly
apologize
employer
floors
lone
pla
outraged
taiwan
##ealous
whoever
##kok
slide
sympathy
##hift
paralymp
displaced
introduction
tah
##kh
natalie
orb
gambling
##rose
endorse
gunners
exercises
phrase
heights
prisons
revelation
##otype
##ais
stakes
incent
shabaab
nixon
consens
reds
optimistic
robust
respects
disgrace
##ourse
absor
diversity
bapt
tables
seoul
110
rubble
eagle
vod
knees
backp
overha
yoga
raided
credited
crop
courthouse
guer
troubles
donetsk
##erable
fireworks
trademark
lis
##play
sustainable
topic
shotgun
audiences
bosn
grat
heartbroken
grieving
##keys
identical
andrews
briefing
pursuing
##rad
runners
makeshift
umb
##jection
rhet
dew
999
neighbourhood
resolved
dirt
##jad
prostitution
expanding
##igation
pochettino
archbishop
jor
kaz
clif
##awl
walter
overturned
##roe
operators
beyonce
ramos
retailer
wrongdoing
bt
##gone
##umin
lied
improvements
bergdahl
whereabouts
freeze
##liner
ply
##illas
##enh
actively
madison
lesbian
gorge
kle
lawson
transit
volley
orient
heartbreaking
gaining
organic
sunny
extradition
##ste
bali
workplace
therap
deton
treaty
tibet
rory
blackburn
unarmed
opera
##17
isa
visitor
melt
applic
exists
declar
gove
##eur
riders
pale
rider
reflects
reluctant
junk
brows
polling
bangkok
tigers
mak
indicted
##eled
themed
luckily
idol
profound
johnny
##eria
allowance
suffolk
anxious
wend
juice
##rative
barca
17th
destinations
channels
##atoes
shattered
##empl
simpl
blocking
astronauts
hockey
firearm
yahoo
qualif
shiite
plac
##rics
##hamed
##iffe
bullied
dia
banner
##iciency
retrie
momentum
faa
beast
paula
greatly
aspect
fluid
hatch
soap
advances
##annon
errors
upstairs
threaten
ultra
incomp
curios
requiring
kensington
flies
accord
affection
broader
battered
mim
rih
##lev
chal
##urer
churchill
94
premiere
developer
troop
ashton
gravity
shelves
amongst
rica
dealers
banglad
##mill
mediter
hotsp
£40
juvenile
glen
floods
reactions
bangladesh
##onna
happily
submit
populations
bourn
enquir
uprising
param
firmly
##inction
blasted
croatia
fog
allerg
bee
##ppo
tripoli
poisoning
shak
stylish
aides
lawn
norwegian
##bn
##quet
conventional
lud
debts
##inator
unrel
volcano
diverse
kin
##print
aur
absent
dancer
magnitude
agriculture
joking
##erts
pont
hallow
jenny
toss
joel
layer
rihanna
##iago
notified
quietly
episodes
mediterranean
pays
neill
germans
retain
##quez
360
booth
##ikes
montana
stitch
sounded
wilshere
bands
##ahn
wherever
raj
gibson
bung
insider
lucrative
nursery
##icating
##osc
##iffs
romania
architecture
97
##instein
reynolds
pipe
martha
ethics
tortured
cun
nasty
carp
shuttle
valentine
##mart
mandatory
##zed
chick
##ersen
comply
sensors
falk
plunged
parach
mining
sketch
somali
cute
##itate
chand
apartments
pearson
leap
electoral
£300
##aments
pepper
##coni
austerity
pistol
crowded
permanently
psychiat
paedophile
brink
organizers
lakes
sells
sizes
brien
indef
compare
airplane
flet
shane
escorted
danish
aleppo
16th
plates
worries
##ieu
persons
cyclist
##vas
##amine
genes
bmw
##tering
intelle
landl
contaminated
unpaid
persuade
jealous
##urious
isle
meter
granddaughter
prank
lodge
linger
shades
reaches
advisers
aqu
##icting
hammond
1983
intellect
##amel
modelling
lance
##quer
finances
##attering
windsor
creep
ling
observatory
fascinating
tide
tommy
tense
brav
oral
manif
sooner
gunfire
contractor
kenneth
contents
regiment
##parts
lugg
uncertainty
contemporary
accountable
acknowledge
stricken
pippa
##essa
flesh
throne
mourners
definition
halloween
slee
harmful
pater
load
controlling
radi
interf
assigned
nonprofit
authorized
bournemouth
eug
pon
colourful
outrageous
indicates
certificate
shepher
curiosity
till
##inter
bulger
invested
plag
flour
typh
##lav
##olan
courses
winston
database
finest
studios
##otta
distingu
mutual
indonesian
interpret
pri
chen
inspiring
counterparts
maintains
logo
colonel
##anz
stating
blo
industries
fathers
##avan
tune
lever
##elihood
congressman
inex
##afe
dough
neutral
##uro
##awling
##nings
identifying
##oped
seeks
angle
replacing
treasure
offsh
scrap
riots
serie
skiing
##amped
refund
richest
saddened
sebastian
##uma
distinctive
fals
##atile
trent
script
mali
bases
ces
##mission
drowned
aisle
orchest
isab
providers
portsmouth
fletcher
chased
travis
weakness
nicola
patric
##acles
foley
cough
##bin
##spoken
operates
writers
rspca
orth
mclaren
##icul
##avi
quake
1978
unlawful
cs
warns
##oyed
lynch
##oub
creator
sticking
##law
famed
transg
thief
whales
stays
felipe
supermarkets
olivia
enl
cripp
##gs
##anmar
reef
cheshire
brains
assert
oppose
treats
silic
pitts
cay
intox
##actions
credits
advertis
hiring
##sted
solicitor
ashamed
argues
cosmetic
evacuation
janet
quarterback
bib
monet
myanmar
##angel
##raf
semif
embarrassment
##manuel
1969
cartel
burr
##emes
successor
wi
marit
evident
singles
reminded
##frey
consol
depends
nationals
occurs
escort
lily
##erto
covent
frightened
congo
lennon
johan
draws
bacon
##orah
fitz
##via
##ogether
economics
churches
##umar
glor
geoff
stuffed
acquired
lens
guided
mode
routinely
carnival
##agher
recruitment
##cor
boyle
hir
##part
186
russians
legislative
##ulent
##ault
sufferers
adri
pressing
£11
laying
##arming
download
contrary
abandon
jesse
newtown
inflam
depressed
concerning
males
magnific
gaming
misdeme
berlus
1976
cocktail
##holders
chill
mersey
cheating
wardrobe
whip
formerly
cambod
superm
paulo
##iggins
frustrating
incorpor
mia
##rup
accessible
maintaining
altogether
berlusconi
cod
barred
zuckerberg
monica
capabilities
spaniard
##olly
hearings
inflicted
luggage
vik
cotton
vogue
unse
addict
successive
volcan
##iola
wrap
##ophob
intervene
lac
porter
##bage
chol
expressing
fortunate
mumb
sticks
flan
##space
sacrifice
shaken
cardiac
poorly
fossil
charter
gadd
lah
##eon
slave
eden
transparency
schm
yield
approaches
mortem
##omic
instructor
##aching
oversight
superstar
surfaced
##zer
##sty
sauce
spree
tomb
elegant
mik
tier
sheets
acquitted
implications
accomplish
rams
brent
resur
shook
panc
booking
proceeds
cheryl
hert
portrayed
whereas
##ieties
quad
withdrawal
showers
##illery
fifty
reprod
silk
storey
skirt
logan
ethiop
pint
##sl
##hem
reviewing
explosions
wre
##ilee
##inness
##ulu
scal
boarded
chairs
cockpit
##gom
mourning
unity
sponsored
reconc
victories
dishes
bury
fold
chester
hasht
withdrawn
roth
responses
kenyan
sandra
magazines
fry
corrupt
enrich
chapel
##erb
flats
berkshire
mcconnell
unite
knives
limbs
hos
hello
hashtag
salmond
fails
ips
glac
interactive
bahrain
healing
£1million
buyer
memorable
tackling
motivation
##iox
##iona
##uffle
innovative
fow
slot
pete
£14
consumed
##abi
levy
pant
##rav
poet
healthier
processing
participating
brigade
expedition
exploring
curtis
derek
##thy
humble
griffin
enhance
kicks
pond
contrad
orphan
witch
suic
helpful
monkey
salon
murderer
##sterdam
broadcasting
viv
zam
retal
##gregation
lounge
##ortions
richmond
##esy
handbag
rumors
electronics
pockets
##ping
securing
exchanged
besides
##hop
disgu
roch
montgom
patriots
jungle
rhetoric
lighter
12th
operational
fortunately
dawson
inflamm
##anson
injection
motorcycle
sting
arra
goss
wilts
maritime
##rina
collar
colombian
accent
auton
surrog
##habi
barrister
2020
##ateral
1963
emotionally
mouse
125
voter
separately
geneva
sadness
breastfeed
rays
misle
curious
belongings
leis
2018
perception
miranda
smuggling
unle
dose
##ublin
policing
samp
##zb
amsterdam
rides
vitamin
heb
presum
enterprise
marking
awes
foreigners
worthy
melan
tasks
preparations
##ao
counties
karzai
raymond
oc
scans
christina
tribune
##bourg
a3
diplomats
branches
patron
premises
dunn
raheem
inevitable
wished
commerce
##raeus
##tar
##enter
unbeat
pipeline
rack
prejud
##eleine
corrid
participation
mohammad
jas
ral
loft
mainland
abn
ambition
toyota
lash
packages
glamour
rust
##coon
madeleine
females
##ean
##rique
martial
1970
##enkamp
kend
##orie
eldest
appet
memoir
muham
##nut
drain
disorders
lonely
pie
infect
discovering
petraeus
motors
importantly
latino
griffiths
##tor
burton
purse
morsy
transgender
##pat
##occ
margin
costly
diary
hassan
overhaul
arc
inh
##udge
##ugging
disclosed
prescribed
cattle
hein
utterly
15th
carriers
##idy
allardy
##ancies
financially
ambitions
accidental
timothy
telec
beverly
allardyce
pund
cara
shortage
1968
##function
##ovich
dental
indig
distant
bridges
deported
critically
circus
examining
hondur
diane
ni
sections
toe
cah
implemented
dhabi
exclusively
steenkamp
##ocaust
atroc
2017
robbed
##steps
##itary
dems
holocaust
##guards
exploration
destroying
wade
##rera
produces
fixing
particles
jade
##hl
denying
spine
##hist
passw
1974
independently
stern
une
##aires
labelled
##aj
resting
pengu
doping
waving
supplied
rupert
##leen
villagers
external
disruption
avoiding
unst
##ede
##backs
telescope
hilton
##emia
justify
assange
squir
brandon
ging
intend
lords
gregory
bain
##unders
etihad
sanctuary
##kill
benefic
permitted
pga
infer
parenting
declaration
wiltshire
stair
##hua
heal
##azor
battal
praying
sutton
mumbai
dorm
battlefield
deborah
imprisoned
chloe
gra
introducing
awesome
hudd
##mind
strapped
##marks
interpre
nebr
13th
tattoos
##kirts
rope
frankly
approve
katy
merseyside
outspoken
designated
applying
emplo
royals
##ropriately
rampage
mau
##ayor
allied
harrow
188
artwork
credibility
disclose
magnificent
grues
bryant
##lic
pars
excav
pageant
companion
silly
abduction
kenny
forbes
##raham
intensity
sofa
##geries
hostile
ecst
dublin
##okers
voluntary
skept
##eg
knocking
outer
devil
strauss
catastrophic
reiter
contributions
thankfully
halfway
rifles
nec
nons
listened
abnorm
nebraska
daddy
newton
confession
forecasters
tweeting
##gence
1977
psychologist
drops
imminent
racially
luxurious
barriers
narrowly
bargain
cout
gb
megan
paralys
honestly
altitude
consciousness
headline
breeding
allege
cameroon
administrator
sank
dragon
privilege
rant
##oh
carlo
lohan
##uces
transparent
bankruptcy
sao
##ulk
riley
sciences
credible
fortnight
unders
1972
suburbs
arnold
fah
psg
##ux
leisure
servic
parkinson
exhausted
fraser
101
panels
gilbert
alison
mang
noble
confirmation
patricia
gav
lynn
undis
deployment
collaboration
ios
hopkins
organisers
antibiotics
##stead
appreh
engulf
bidding
gloucestershire
mata
nanny
therm
##erals
##inis
illnesses
jak
farming
possessing
mounting
bundes
##sk
editorial
supposedly
instructed
huff
hilar
mere
graff
disl
##grounds
recruited
##bound
quarant
contractors
embraced
##ecessor
plug
captive
layers
neighborhoods
lining
##atics
ree
showc
mccart
gruesome
schumacher
alexandra
stein
frenchman
frater
ordering
##nan
alley
canyon
##brough
##aho
declaring
indefin
exotic
##orton
mead
governors
convoy
predecessor
fractured
invented
camilla
veto
harbor
outskirts
##lem
mails
prosth
450
##inos
collections
manifest
750
##inejad
reliable
journalism
contacts
crowned
wondering
blogger
uniforms
##isms
##urance
##tedly
costumes
germ
##ea
blatter
undergone
huss
preserved
£150
adeb
ozil
donna
socialist
prolong
1st
##rice
1964
fits
cove
£250
brutally
##ige
responsibilities
influenced
xbox
14th
trayvon
olive
wow
##acon
chew
##acker
neverth
##anim
spared
syl
##ribly
minded
finn
bicycle
darkness
advisory
fetch
trap
processes
##umbria
prospects
perpetr
nevertheless
clad
cooked
wors
overc
coins
fairy
hats
wield
espn
plaint
##acious
nepal
claud
executions
reflection
medicare
fernandez
blaz
directions
robots
surveyed
bans
##itic
##stage
griev
masks
priorities
neighbouring
##icable
flowing
indul
surgeries
judged
scots
blessed
boasted
transformation
plymouth
lith
disast
locally
fiona
##aston
##kee
consulate
physician
regist
compiled
flagship
jihadist
injuring
eyebr
mous
tract
disgraced
pals
##cation
interstate
quinn
patent
cowell
##liga
nickname
imperial
vomiting
nun
gunned
puerto
overdose
pav
eyew
fearing
youths
dwar
posit
aiming
inhab
##ellar
violating
deportation
relegation
drill
locks
luther
ig
acute
blowing
launder
ahmadinejad
weiner
earliest
jubilee
arabic
participated
hagel
oakland
pitt
rena
bombers
purchases
katrina
tolerance
vest
##achi
debates
declare
minimal
scattered
tran
preca
floral
gaddafi
soup
tops
caut
instruments
blasio
zones
plight
export
starb
priced
bio
disresp
illustrated
betting
shepherd
gul
notion
tracy
wrongly
firefighter
bruises
chamberlain
wikile
notably
retr
eyed
freak
scorer
bundesliga
##aku
backyard
downs
guaranteed
attributed
bits
crops
repay
##prints
biting
theories
sake
alike
uss
capability
mcn
televised
cleric
respir
harri
##iasm
precaution
hoy
brag
weekends
wikileaks
puzz
hms
unsp
nan
rats
asda
aval
ern
container
##uer
£13
mercy
significance
horizon
cleaner
consultation
imagined
sr
spinal
bravery
blanc
masked
graph
redd
deleted
##esthetic
##ourt
confisc
streaming
grocery
footballers
risky
speeches
bubble
baff
drilling
surgical
lingerie
justified
classmates
captivity
enthusiasm
philosophy
##moon
amazed
1967
deliberate
grin
salad
urine
owed
investments
glitter
distressed
justices
blaming
1975
batteries
tunisia
unbeaten
impair
festiv
reply
drown
consc
hezb
seaf
##bek
divide
##grim
constructed
contributing
requirement
pearl
ancel
rode
concentrate
nolan
regrets
dominant
couch
##ulates
limb
80s
investigative
##incing
economist
folk
athens
encountered
bikini
typhoon
raced
##lestone
favourites
shorter
bind
##ailed
poppy
##cars
fertility
ancelotti
whites
technic
drank
specialists
substances
digging
podium
##des
##arn
noon
evol
evolved
relent
idaho
mening
achievements
##omi
ellie
dependent
locate
beatles
curb
darling
rigby
surrender
dart
wasted
agrees
implants
asth
delicate
trainers
artillery
mccann
battalion
alarming
skipper
wiped
persistent
##aney
dismissal
thirty
pine
##lay
doug
census
##ickers
predomin
indicating
pittsburgh
considers
amput
hezbollah
economies
screamed
measuring
bonuses
exchanges
ss
warehouse
submarine
wig
lex
forbid
disastrous
##shots
motorb
punct
tragically
punching
novak
algeria
##rise
madonna
minorities
santos
##ormer
joins
grabbing
pigs
dual
mash
mixture
buffalo
archaeologists
attitudes
opposing
##eer
incons
humor
labels
millenn
stretched
cherry
giggs
unear
devastation
corporal
wendy
kor
brides
bipart
gel
##deen
##apova
##uba
brits
replica
nuts
genuinely
fragile
caf
performers
##glasses
commanders
contestants
##uri
spear
makeup
pilgrim
rw
insects
honeymoon
vend
##leton
alban
seals
turb
couns
blackberry
facilit
marched
##iott
borussia
sharapova
circles
arguably
municip
ralph
lil
enrique
##ollen
swat
speakers
persuaded
counting
grows
animated
marty
abraham
expose
invitation
undermine
commuters
needing
recordings
##anche
hott
##omous
advise
clearing
locker
frightening
sach
##anth
soared
1973
kissing
sums
deaf
mane
mandate
thoroughly
cyprus
bisc
elvis
##colm
kieran
cogn
rico
zara
flip
##ensen
##conn
concuss
hatred
##master
repeal
genoc
calf
malcolm
hertfordshire
starbucks
refers
languages
##drew
honored
presenting
##rc
##odox
1945
gorgeous
dwarf
retiring
annually
protesting
lanza
jod
##urd
boards
montgomery
airbus
goodman
coventry
pi
womb
sunset
##oust
recipe
freely
versus
strangled
echoed
pavement
bach
coral
burnt
flexible
bing
bulk
tonnes
dishon
components
##uum
playground
detached
tycoon
cahill
shapes
agony
robson
aspir
adela
clarkson
ginger
jog
hew
embry
fictional
nerves
shack
mann
endors
rankings
##ski
existed
bulgar
marcus
bast
flame
identities
broadway
prohibited
dair
separation
applause
subscrib
vett
##atra
nazis
crude
turf
literature
supervision
crocodile
dum
busiest
associates
exhibit
seaw
slain
##oyd
pickup
mice
abuses
##ials
##onga
musicians
##hani
ousted
##vo
splash
graffiti
shannon
withdrew
roadside
wireless
gingrich
luiz
dolls
daley
muhammad
walmart
eliminate
yang
stub
krem
laughter
correctly
jos
stint
##ogy
contrace
sanction
attracting
mechanical
icy
##pot
##ignant
flam
cannon
spectrum
gabriel
inade
monk
enabled
crane
##boards
processed
paperwork
sniper
brac
breached
driveway
altercation
aggression
cull
##acies
##flix
sparking
pix
zar
prox
militia
undoub
accomplished
##bone
##60
quir
lebanese
sights
##fk
incon
bentley
uganda
failures
unsuccessful
lyrics
ellen
enhanced
dynamic
##issance
hamstr
ballet
curtain
categories
convenience
ler
rental
##25
##leigh
curry
adelaide
manages
endless
magical
guat
restor
payne
belongs
honda
offshore
tempt
inacc
negotiating
##fts
hasan
walters
pedro
lunar
rim
trillion
floyd
##aley
descend
##afts
intentions
inherited
5ft
wired
wondered
conflicts
disturb
groves
offense
monte
hobby
newman
schemes
balanced
imagination
advocacy
leaning
##arity
blade
crashes
torch
sas
##ori
brooke
contribut
disagree
##bands
swath
memo
provoked
hated
##iman
denise
motorway
suppliers
javier
scope
nearest
proudly
sz
##enburg
northampton
seated
assessed
hammers
mistress
ethan
refusal
sharia
portraits
ace
unanim
revive
##nik
##health
expertise
cement
gau
prostitutes
exeter
molec
lego
prototype
appointments
monetary
soaring
brewer
paradise
dys
tribe
meantime
jihadists
dens
##edy
invis
netflix
intrig
gymn
mccartney
##eid
knot
sword
swelling
boycott
venues
siber
prone
voiced
landsl
seam
##umbs
scouts
smoked
calder
mcg
functions
tricky
mahmoud
lia
sprawling
bulls
xinhua
registration
guatem
greene
ageing
collided
lanes
disabilities
delaware
vettel
exams
accum
planted
fuller
barton
whitehall
##enous
marina
provider
santor
diplomat
pouring
sperm
hardware
boyd
170
pleasant
bureaucr
bianca
jelly
##ongh
mobility
tricks
knights
lifel
baroness
2million
seeds
habitat
frenz
upside
tamer
narrative
picks
wren
debbie
doubles
scholarship
kahn
zomb
newark
flock
descended
references
bailout
bitten
maxim
gand
naming
##eard
crunch
relate
enduring
sunglasses
1971
fashioned
articles
cubs
##rained
##uration
##boys
instances
remarkably
jacqu
gibbs
entrepreneurs
##15
sains
curricul
accommodate
##itution
##osaur
drogba
##rella
##erving
humour
stabil
boundaries
sak
sailors
##ometer
polo
hussain
becky
terrain
scream
shrink
1million
shine
##odel
arson
hunters
seekers
intends
presentation
pietersen
qualifier
screw
banker
pursued
mastermind
satisfaction
##etically
plaza
resource
aberdeen
phel
criteria
steroid
angered
thresh
prosecute
##ophies
cracked
experiments
##igma
##enzie
rabbit
##uda
outlook
hanged
meaningful
daisy
ridge
flir
historian
##tree
precise
asthma
£18
rounded
internationally
forming
charts
robbie
correction
coin
vert
##card
##qa
guinness
jolie
middlesbrough
gee
tents
berk
janeiro
lincolnshire
misleading
##roft
joyce
seaside
vandal
unearth
dairy
##ensively
autobi
infectious
curriculum
##ilation
myers
guardiola
misdemeanor
twel
courtesy
screams
neat
timeline
1966
neckl
onlook
warmer
pierre
surroundings
supervisor
##12
leo
sworn
deadl
decisive
wallet
robben
onlookers
nike
tally
clips
##rove
sung
salaries
malala
hyd
yemeni
mercury
jazz
yelling
haird
slashed
hardy
relaxing
ivf
wolves
kris
herrera
cans
descent
tunn
##ych
flick
define
dominic
matthews
cunning
appetite
##dia
crush
instinct
derb
chop
contempt
serbia
receip
miscar
unwanted
trench
extrav
hedge
##jah
##lements
heating
reader
coronation
objective
respiratory
reunion
##dling
##oto
decides
downton
talents
regulatory
litre
2nd
pools
teddy
gag
accuse
apprent
smashing
greens
vacuum
partisan
tournaments
##dogan
styl
##imet
frog
##sole
agreeing
plotting
adequate
klein
hog
mong
utility
athletics
wisdom
degr
patience
situated
roller
##keepers
hormone
##brook
genocide
clashed
backwards
##hole
historically
##market
rol
tore
backdrop
respondents
maternity
confined
netted
repairs
resil
pains
wilf
vibrant
sainsbury
gum
hoffman
overr
savage
##assed
enforce
isaac
offending
handwr
clinics
physics
encourages
fueled
notable
clerk
lowe
erdogan
succeeded
sinking
lizz
publisher
belfast
biography
monitors
skeleton
##acent
monroe
turmo
licensed
##tes
catwalk
acceptance
calculated
nonsense
scoop
gemma
turmoil
6ft
##dp
strat
convincing
holders
housed
prostate
plagued
hottest
charitable
regain
##asant
##osity
afterward
erin
equaliser
moist
footsteps
tara
dreamed
azuz
leaks
misery
elevator
eyewitness
invite
miners
horrifying
hil
lall
woz
fron
capturing
sharply
niece
##vak
##stick
usher
kills
irrespons
shootout
laurent
##osi
outgoing
scars
linking
ruby
fist
uber
##bench
spike
ethical
seizure
casting
achieving
sculpture
johannes
nus
insult
accessories
capsule
fundraiser
worship
carved
slavery
dancers
mackay
compatri
winfrey
entertaining
lesser
township
protocol
##uctive
accountability
solidarity
a€
bere
##dings
##eder
ink
moder
wilder
adapted
##14
unin
blows
representation
magnetic
gy
yaya
##urry
unch
leigh
dh
##hart
outc
moor
shelters
terrace
lindsey
exploitation
disposal
sev
##otto
hilarious
ecl
islamabad
##ml
counted
obsession
administrators
ltd
##zo
##roper
indigenous
intact
carson
stefan
oval
doyle
underlying
persecut
prolific
gc
shipped
blessing
##news
elliott
lobb
separatists
comr
185
israelis
panor
leonard
##cliffe
jagu
##atically
daring
thankful
vodka
ere
##icia
improper
sanford
dismant
ladder
tac
##iy
30s
porto
verbal
ribs
diesel
administered
clifford
cort
underage
hoax
bowling
abbas
ivanovic
gos
shelling
disbel
florence
disputes
wheat
penet
tracey
vermont
ritual
bipartisan
adverts
imposing
judy
rivera
##vern
passports
construct
gentleman
til
##ainted
launches
##obile
diamonds
##far
##attled
surfing
cancell
unre
##iza
disclosure
protester
miserable
predator
kimber
stereotyp
waved
reserves
farrell
provinc
detailing
copper
aus
ott
compelling
##phis
pacqu
wrestling
experimental
##vine
teamed
mccl
laughs
toilets
##icio
premiers
bowel
extract
garbage
segment
brib
hutch
##will
liu
initiatives
aurora
exempt
traces
proves
defiant
empower
magistrate
##aters
spying
prosthetic
##fo
canter
overhead
founding
extremism
occasional
romanian
stationed
dedication
lemon
hamstring
cesc
nails
console
unman
colors
cousins
nag
##arted
##inda
##ype
pairs
texting
bachel
discount
fuelled
tina
wax
skilled
duell
1965
##ymph
interrogation
pud
touches
faithful
lodged
stiff
##oline
manhunt
backpack
##uffy
begged
stanford
lallana
##mi
alph
##ourage
damning
##lia
medications
##ricts
halted
austrian
artistic
holidaymakers
shallow
kremlin
bore
nou
offended
gloss
sensit
incorrect
homosexuality
wozni
plead
goldman
sprint
adorable
undoubtedly
roc
##pear
hail
adul
audit
penis
evaluation
rows
##isely
newest
grabs
delegates
vanc
troll
crater
homem
qualities
blockb
observer
wounding
##rh
constituency
##df
unborn
sentiment
factories
bikes
kob
##try
pean
prophet
charlton
tactical
baptist
leaking
default
refuses
corners
sickness
pensioners
pesh
consulting
cheers
disrespect
##uka
strongh
memphis
districts
mosul
bonds
botched
##ti
supplement
alfred
cpr
warfare
##ught
rocked
##reated
digest
homeowners
ming
starr
detection
genius
##45
trophies
outlined
intake
schne
loyalty
aggress
mentor
sul
yous
zah
interc
1960
psychology
aub
##foot
bean
microp
safari
cheering
##combe
investing
##eva
sponsor
rehears
buch
nca
##pin
technically
juris
randy
muller
eco
spells
globally
##eb
ruin
forgive
shaun
cries
dana
showdown
leslie
5m
##eav
##mat
manor
hipp
picturesque
barracks
salvador
indoor
invisible
##think
bypass
serena
##ahan
extending
westwood
selfies
ajax
inadequate
fraction
poised
timber
1962
judgement
agricultural
nab
##uv
caes
snakes
breastfeeding
tamerlan
minors
signings
crosses
hurting
checkpoint
pacquiao
kw
gru
kathleen
jewelry
compuls
inters
rubio
boliv
kany
whitney
provincial
##ouf
marcel
endeav
reopened
abund
##athing
##neum
balloons
trev
arias
shakespear
##elia
interven
staring
camping
cheered
mature
arrangement
##uds
suitcase
£400
clare
gerard
crawford
swiftly
oy
briton
uran
##linson
gloucester
swap
premiership
bould
##lair
asset
swollen
queue
lawsuits
squeeze
##uish
chim
attendant
farewell
70s
parall
##ilyn
##week
snack
progressive
pork
contempl
summ
intentionally
morocco
remy
containers
delegation
tunnels
piano
charm
glow
judging
voluntarily
prints
printing
bathrooms
baldwin
campaigner
##aneously
demonstrates
exhaust
ought
depress
schoolboy
zoe
jefferson
##ouver
rect
spat
traced
snacks
##author
trooper
diox
##19
judici
angels
listing
grain
skinny
honduras
bored
##iments
signatures
unfold
pulls
1930s
dare
injections
inspir
begging
verge
tyr
batman
comparing
pneum
##pine
behave
cinem
orientation
gome
lough
continental
sexuality
frequency
leonardo
judiciary
safeguard
rainfall
cyclists
mega
##ennan
##burst
abdel
savannah
heightened
vince
wit
partial
touchdown
remembr
jin
upheld
workout
smallest
£17
maths
focuses
regulators
inherit
eagles
neal
shoots
purely
##xx
arbit
conting
headaches
snatched
£35
koeman
obligation
cambodia
fowler
##vic
##uter
twisted
##soever
slice
humph
daylight
consuming
inequ
##cepts
carc
187
autobiography
induced
pressures
assisting
cartels
concealed
##kind
traumat
molest
90s
scoot
commenting
seizures
santorum
gore
harvest
horrendous
schmid
fay
interaction
vancouver
performer
modified
unfolded
altered
cec
saunders
##uding
revenues
derm
##vez
##ighton
golds
eg
phoned
endure
challenger
mosqu
guerr
falsely
dzh
kanye
nairo
##elin
slogan
absurd
precisely
60s
kro
resorts
whatsoever
brett
weddings
graduation
threshold
gomez
conj
##ardi
sponsorship
agreements
prostitute
meningitis
ignoring
recruiting
parachute
cudd
vets
##iqu
upton
handset
credential
commitments
negligence
##inery
unfor
koreans
concord
predominantly
rains
unpop
jamaica
lisbon
hike
lending
pediatric
columbus
blasts
sensible
##writer
shifts
dixon
laps
##yet
commentator
lowered
occupation
unhealth
cables
enclosure
immunity
tender
calorie
freeman
##ui
wholes
crab
cows
swimmer
lads
adventures
belly
turbul
unrelated
canterbury
##rot
ley
saleh
resistant
conclusions
sectarian
airspace
educate
lyon
overlooking
liberties
unmanned
projected
dewani
sidelines
leah
surpass
##uala
##beit
ruins
arabian
bony
##opic
barkley
welcoming
cumbria
##lean
transmission
eyel
marrying
burgess
tian
hait
##iov
mush
£80
holloway
colony
skype
cardinal
toni
convey
##ieval
skys
##affer
chemistry
anthem
abnormal
germain
dzhok
fuk
##bach
milestone
medieval
settings
chaotic
chatting
intellectual
nairobi
rushing
bras
recommends
##vals
ans
mirac
newport
evangel
edited
colleges
nass
exagger
sunlight
scandals
1944
##iciently
phenom
dazz
##gel
##imi
grasp
subc
despair
aspiring
mathem
shields
inevit
nets
packaging
connecting
##tures
tackled
theaters
iain
##cz
disasters
£19
counterpart
kercher
warrior
vag
##nbc
##uffed
liberation
albion
graduates
forthcoming
##olle
chun
##terson
##proof
kuwa
##enos
cran
pepp
strikers
potato
jaco
##hydr
restraining
##esses
workforce
barric
barrett
columnist
sinclair
rag
##len
##fol
##fty
holt
mobil
earnest
cinc
advers
exports
##iph
defect
cooling
alternatives
vigilant
parsons
prow
outlet
remembrance
##lr
##uously
##unes
branson
cram
efficiency
issuing
dragging
reinfor
observation
derbys
rude
thread
trunk
loads
##amps
answering
homemade
nina
handcuffed
golfer
ipswich
fraternity
pab
redund
synth
novels
stretching
whistlebl
squirrel
eleven
watts
mauricio
midst
unpopular
seize
releases
populated
damien
volatile
satellites
cheerle
mugabe
cautious
lend
showcase
panama
physi
disturbed
ecclestone
hansen
wander
zach
mcm
switching
applicants
schneider
leves
ard
intric
raul
marching
unearthed
damp
pec
##iary
##quin
##aneous
pretending
toughest
shells
hearted
mccorm
marcos
rogue
##ups
##marked
dioxide
##bank
partying
implant
unusually
platforms
chorley
jurisd
incumb
rovers
marvel
adjour
sovereignty
diaz
laundering
##cul
beam
blu
alleging
##ovan
##lecito
twelve
jumper
##aus
##inally
albeit
predators
encounters
derbyshire
cerv
##otal
outburst
getaway
impacts
defle
barker
drift
petro
50th
ignor
stretches
quote
finale
noneth
controller
willingness
mechanism
lifts
audi
hygi
recommendation
hygiene
dumb
sore
clue
forehead
undoc
cheeky
disgusted
nonetheless
penc
messaging
wilkinson
fabulous
diverted
##table
##eny
##isi
shores
##iffer
confirming
closet
grenade
mh17
chanting
restoration
nit
##rill
##unct
submer
rainbow
reconstruction
topics
midter
##etto
verify
analysed
recorder
fallon
##umented
##top
##andro
hamm
counseling
gossip
undocumented
massage
honoured
sanders
retaliation
gus
mocked
##fair
likelihood
frontier
sensor
gestures
abol
clive
disqual
betty
refres
threatens
homs
tribes
lacked
affiliated
##bridges
rother
toast
brawl
mey
charming
carey
50s
trusts
oscars
lacking
supermodel
beats
noah
cooperate
silicon
amph
marr
salford
immense
piled
municipal
og
##few
##ptions
mafia
hunts
conclude
provocative
inconsist
thumbs
##eton
embed
candles
watkins
bosnia
glorious
shakespeare
brace
dispatcher
morm
##irus
##abling
depicted
succession
medicines
kelley
southwark
jorge
brow
learnt
mold
##just
servants
preval
##uity
tol
resid
carer
thrill
napoli
atomic
wellington
harness
sollecito
embro
jihadi
gadgets
subtle
tuition
lifelong
unhealthy
##rians
lava
lymph
##turn
##rez
backgrounds
retained
loses
budgets
freddie
coordination
dolphin
subd
captures
tyson
eyebrows
severed
hitch
curfew
kidnapp
##asa
atop
fishermen
sequence
ander
caret
##rapping
scholes
compromised
servicemen
disbelief
cakes
vip
drafted
simult
expectation
responders
falcon
dvd
jfk
oun
crick
marble
##rob
caller
unsure
dominican
gifford
orthodox
##tles
combine
observe
rhyth
ibrahimovic
handcuffs
##ulin
transmitted
homophob
evacuate
kilometres
deposit
##lifted
credentials
##lade
saga
slog
gea
traditions
rhode
priests
rey
##vering
##derm
quicker
purported
pearce
molly
ransom
engulfed
dzhokhar
##andy
prolonged
capped
grounded
prizes
smiled
bailed
cpl
sina
##ucci
111
policemen
cyrus
pinned
explorer
alg
crus
soaked
##ptive
strokes
fatigue
##holm
poorest
tanzan
enthusiastic
recycling
marilyn
##lete
crem
mcd
alcoholic
indianapolis
bree
iq
##insky
teaches
ricky
merchand
pew
warship
danielle
suspicions
regulator
sightings
harriet
underm
mckin
diarr
attach
stats
recruits
tablo
escalated
irresponsible
touring
##heric
upro
serbian
##itorial
kissed
cps
ding
jagger
kc
##iating
afp
joey
worlds
helpless
##ologically
##ulsion
fugitive
allan
johns
creativity
collector
coordinator
bog
davidson
tenure
quarterf
astronomers
psychiatrist
cincinn
##a€
##osy
aging
dried
bulld
enthusiast
postponed
johannesburg
spite
swind
probable
##lane
resumed
cambridges
possessions
hooked
enthusiasts
3million
mered
pend
format
cancers
giroud
falklands
saus
eva
misunder
bids
gavin
uranium
kang
vin
##bird
##tc
poem
coward
dutchman
rbs
clam
grades
##ontin
woodland
consequence
bronx
clooney
cincinnati
syrians
##henko
sack
##iliation
cheney
paran
schal
moreno
newsnight
supplier
koch
surreal
slaying
santiago
symbolic
phelps
outcry
##las
##fr
boring
miley
upsetting
stimulus
harrowing
zur
plots
dani
##keeping
corrections
oxfordshire
appalled
##irez
declining
untr
salute
origins
sensational
bounce
inaccur
bish
zel
shab
migrant
assembled
dared
erupt
taped
abilities
walt
##aders
amir
eliminated
aeg
##sburg
sacred
inspirational
9pm
gaga
pors
##owell
blend
komp
piv
ras
peg
arrog
streak
hyde
wink
##terror
esteem
infir
10pm
ensured
rapist
applies
bruno
bulgaria
meredith
##edo
rept
##ishes
issa
ceremonies
##dled
##fires
##umble
socks
albums
##iq
##iya
legion
sometime
kurt
obl
unsafe
hinted
gin
##achers
##ceptions
filmmaker
surrend
tactic
batch
angelina
cleaned
inequality
##berger
##ollo
downstairs
tomas
darwin
mammoth
wicket
##arians
transactions
burke
poulter
schmidt
feather
playboy
provisions
stepfather
venezuelan
steering
peacefully
sneak
motorbike
oath
sult
sene
caravan
##actic
promot
badge
insurgency
aggressively
unav
manc
##oints
gifted
bruising
extravag
lur
##auer
passers
##retion
radamel
alberto
intoxicated
##isse
paras
cola
mummy
inaugural
bae
interrupted
bothered
clint
annie
##shaw
##dington
umbrella
leveson
geral
exh
steak
insuff
lydia
yanuk
vall
suited
nationally
heavyweight
akin
rational
vas
##ulously
takeover
malicious
##raine
sickening
jag
tales
qualification
maiden
##aini
##endo
presumably
##bra
suz
resusc
poyet
northeastern
##lifting
didier
injust
cultures
attractions
forgot
wyoming
waking
##oshenko
arrange
suspend
##boro
commanding
brutality
ineff
embroiled
fus
lured
saves
offenses
seth
##iances
portions
exploited
dynasty
minne
awake
autograph
occurring
oceans
nominations
mattress
ambulances
saddam
lukaku
als
teresa
shareholders
prospective
pyth
intimidation
kazakh
monkeys
greenhouse
dispatched
fertil
pneumonia
sidel
terribly
flores
influx
counterterror
reversed
clause
playoff
donnell
felix
functioning
goth
##fly
petty
eventual
motorist
mortality
mogul
hmrc
popped
seller
upgrade
knit
guides
cuomo
mish
pamp
clem
thomson
freshman
hungary
accompanying
townsend
helmand
##hou
##utical
twent
incoming
headte
protested
digit
territorial
additionally
ipod
exploit
##usters
henri
accuracy
##isers
broker
midwest
raft
possibilities
procession
proclaimed
rumoured
emphasis
cly
##jar
##user
honours
gayle
ramirez
montreal
junction
olivier
cb
##arcer
adoles
dispar
addicted
insulting
bercow
deepest
reconciliation
##olar
patterson
morph
tolerate
plunge
consensus
lace
paw
forests
morales
escaping
knockout
lgb
mell
considerably
productive
lengths
awaited
ranger
vern
beans
leopard
incarcer
slapped
valerie
screened
airlifted
scarf
fiery
coulson
inevitably
endanger
axe
petersburg
tant
heroic
sacr
yu
##fect
establishing
interpretation
##crap
##taking
contention
corporations
distracted
##ocation
laund
colonial
paralympic
hairdress
cumm
relied
ryanair
schalke
hanc
tends
##bull
childcare
deadliest
##370
##abilia
rook
potatoes
cares
##elyn
##loading
humili
viable
denis
strategies
pablo
intercepted
##books
archive
sherwood
venice
borrowing
deteriorated
kompany
##rock
##urous
hect
concerts
portfol
archives
fixtures
breathtaking
##opy
clown
##aceutical
miguel
nashville
##atable
##adder
paterson
troubling
bias
kasem
caffe
composed
colored
departed
freel
240
aq
##ritis
shelf
remot
buenos
dominate
senegal
##hard
unauthor
sidewalk
bachelor
parag
caliber
promin
kindness
abdomen
stressful
shifted
eut
wester
reminis
##ulty
reflecting
culpr
titanic
ofsted
accepts
enters
defra
destructive
rebell
packs
panda
yale
standoff
advertised
miscarri
cind
pep
wolver
##anthrop
necklace
##mac
stumbled
royce
caval
relying
chanel
maz
pony
sig
neon
##acki
snaps
mcgu
40s
kilog
##ucked
rosen
hd
owe
##erting
aparth
erad
tallest
hint
##cht
jackets
divisions
2022
blockbuster
skyscrap
md
eugen
coats
extinction
patriot
rallies
guang
turnout
kits
##atis
aires
maliki
births
casualty
##zman
##arta
oldham
hypocr
mh370
minneapolis
##asar
tearful
reiterated
vil
competed
faulty
inauguration
##lake
heck
disad
consists
fatalities
hodge
jockey
brennan
theor
violently
envoy
franco
historians
memorabilia
grammy
livest
perpetrators
agon
vanessa
slowed
penned
fortunes
fridge
cheltenham
hugs
kidnap
naomi
##ract
##jev
##11
bees
warrants
remainder
cunningham
doses
shade
##ounce
poles
scales
liability
exposing
infants
torment
reassure
clayton
##screen
lure
outlaw
infring
landlord
wan
shim
tres
stray
solved
##umberland
installation
flint
float
##iesta
veterinary
fior
##cled
##istically
gris
williamson
##strom
legislature
##blance
optimism
shifting
mtv
skip
competitor
fabio
toul
wept
##weiler
tasked
guatemala
zak
carole
attends
##ahaw
museums
obstacles
perver
jonny
unpred
cognitive
grind
swearing
lgbt
eruption
sasha
reson
billed
volcanic
hebdo
wielding
shun
diets
congratulated
deprived
submerged
##irect
beings
corridor
fris
sober
accounting
presenters
rhodes
controllers
annex
yelled
cautioned
rotherham
vivid
uphold
profiles
bedside
panicked
egyptians
predictions
yaz
##othe
harold
defeats
therapist
counterterrorism
gina
gdp
nug
tapes
##geon
##ectomy
beatrice
multip
##rac
##erick
dob
demp
illicit
consume
conceal
rewarded
spinning
unpredict
minus
slaves
tenants
vegetable
##mir
##jet
inability
brass
plough
##ichel
postal
risked
surveys
decrease
prejudice
apartheid
dome
##caster
##lette
affir
dangerously
microsc
##vation
dee
mara
slopes
cracking
##put
##olson
johnston
seasonal
wandering
gerald
##long
exting
rooft
ours
camel
compliance
committees
wheeler
buckinghamshire
clutching
scrapped
ideology
sprayed
reservoir
compatriot
niss
rewards
transitional
insec
majesty
fellaini
environments
kerr
pamela
shear
##the
##iani
natasha
framework
outdoors
cambridgeshire
chimp
spears
allah
roose
iphones
zo
frail
##luded
northw
panetta
performs
biology
##vie
##adic
##igo
imaging
patel
admissions
tastes
dund
##sb
##bear
appreciation
sloven
detonated
##eting
##ecd
dover
overth
barber
zhang
confiscated
visibly
##hampton
delicious
waits
hamid
reactor
stalking
##imo
grove
imported
settling
spit
relay
billboard
diplomacy
rudd
antics
boosted
sax
marion
humiliating
skate
##closed
positioned
gala
bunker
##kar
alumin
investor
programming
ncaa
nost
##iba
videot
sweets
ridden
obligations
demolished
accordance
undisclosed
bake
feud
finland
suppose
clement
illum
bernabe
breaching
accomplice
cush
fount
groin
crouch
headache
advises
arrivals
weakened
euthan
kap
fork
insect
veron
nicky
integrated
bates
quotes
emmanuel
unexpl
ruthless
pedestrian
##esis
betray
squadron
acquis
miniature
observations
hiking
hsbc
warriors
nts
wu
wary
##usen
doomed
util
##isman
unint
decomp
afflu
boosting
uncomm
reverend
kathy
contender
disreg
belle
advising
campaigned
technological
inconven
fid
piers
##urb
disrupted
africans
hyster
benzema
incentive
##enhagen
northwestern
bernabeu
##most
anat
slumped
originated
adamant
tornad
rallied
erected
lent
shining
##ptons
lax
##ushima
valle
chefs
sibling
recipes
grapp
sunk
intruder
cowboys
barrels
endorsed
##ivik
urg
vanity
fluids
philippe
inhabit
baffled
tb
##aways
southeastern
setback
injected
webster
reinst
huffington
porsche
hann
tires
vile
underest
rightly
traders
physicians
ancestors
flawed
lizzie
##ju
##aghan
sci
transfers
drawings
##monds
##moor
pharmaceutical
autonomous
clippers
colorful
hayley
ont
abrupt
painter
verb
bishops
##sson
breivik
walton
##recy
##ienne
labeled
fisherman
thriving
jaguar
##arus
##usk
evan
secular
interference
poignant
baggage
##etics
##astair
loos
1953
moody
kon
sock
ons
##inski
oxlade
fernand
retrieve
##atan
forged
atkinson
lease
claw
##antically
appropriately
ronnie
characteristics
displaying
cracks
venus
contestant
promotional
hare
##wright
##oufl
alastair
##oks
##inka
assure
##shed
civic
hurts
##je
stacey
arist
loch
secrecy
supplements
calais
ced
fuss
asc
suk
infilt
175
copenhagen
infirmary
pelosi
indefinitely
##gm
stocks
unwell
##ighting
depicting
distraction
bins
##points
##unts
willis
robotic
nutri
distract
carnage
##cely
congregation
filip
shirley
spectacle
latinos
couri
eto
hbo
raging
fares
gerry
philanthrop
sellers
mums
barbie
restraint
quizz
220
measles
unveiling
discharge
pedestrians
wilfried
troy
marital
##atchi
supplying
clearance
hybrid
aldi
hazardous
quarantine
orang
banana
camoufl
europeans
patroll
coca
certified
rahman
recipient
insufficient
##aunch
##orth
toes
##00s
highs
tomlinson
##oze
patrols
bleak
melanie
relentless
cindy
##station
abram
canber
1950
dynam
fulfill
grenades
secretive
permits
carrie
marginal
builder
urgently
6million
lashed
##ryn
earns
apollo
packing
punches
ironically
voyage
mushroom
faw
##rix
swoop
servant
atmospheric
pirate
itunes
confer
##ocese
##ctica
1961
harmed
buddy
godd
reinforce
blankets
joanne
lukas
antarctica
wond
##inel
##ptic
harding
roses
chronicle
portfolio
herd
sped
grants
slap
##shop
similarities
imagery
obtaining
fukushima
zip
##eo
figured
exercising
eats
##olics
##igate
offs
imf
propelled
superher
feroc
bankers
halls
accusation
vaccines
wilderness
canberra
mould
##organ
atp
visibility
classical
greenwich
karim
unsett
gatwick
ethiopia
##vian
##orate
##shad
contamination
navigate
boutique
hefty
##eart
##oslav
mines
coastline
crisp
tenth
havana
allergic
reeves
wozniacki
cardinals
mammals
rebuilding
pioneer
##lio
##goers
comfortably
cooperating
argentin
avalanche
sacrament
laundry
hust
forwards
stur
spice
contenders
guild
koh
sincer
drowning
dizz
nause
relies
mcque
summers
pretend
steadily
intersection
moz
creations
##enny
##wicks
goers
feast
yours
115
iraqis
fraudulent
extradited
gibral
coveted
incumbent
ntsb
##eh
##oused
##ensing
takeaway
irvine
manufactured
quirky
deila
croy
marin
refr
sexist
portable
spiral
sensitivity
sided
##chat
poole
bells
uncommon
frantic
adren
violate
##world
owning
skyd
waitrose
ingredient
tiff
##sten
clamp
realising
##comes
adjacent
slovak
inclusive
##inces
spouse
incomes
smokers
medica
reddit
tanzania
8pm
wiz
##houses
manual
##ailing
bless
practicing
surfaces
respective
burglar
enrolled
bc
norton
##ommun
£75
pioneering
caretaker
dempsey
vie
theo
##tham
spilled
graz
preview
cheat
tamara
antarctic
##elight
enabling
quint
thrust
milton
jackpot
woodward
slipping
##irling
farah
glowing
vienna
cellphone
disciplined
hicks
blackmail
likened
grooming
piracy
provinces
completion
ipcc
tucked
suicidal
staging
stokes
governance
corey
component
rwanda
##icity
plaster
##hams
discretion
wearable
vacant
prosperity
weir
##bery
courtois
makeover
limitations
pubs
breaches
everest
##prop
kurds
conceived
sincere
forbidden
vain
enact
journeys
kindle
accessed
attendees
gallagher
tightly
rhythm
congest
seab
105
topless
husbands
gallons
slogans
cres
swell
snp
hamburg
##rine
##felt
haired
conqu
bloc
delivers
burgers
hacker
##boarding
territories
morsi
remotely
##entions
merit
protestors
rigorous
##criptions
unconst
hemis
aa
orn
throws
selfish
towel
undertaken
##onial
##asso
unjust
exile
angles
misch
rivalry
tumor
nicholson
unwilling
kash
destined
370
rickie
##itans
admired
militias
4million
kau
kass
vaugh
ofcom
spont
assail
geographic
essence
cros
entries
maggie
attracts
unsur
ravaged
sudanese
##wickshire
kinder
##wed
##oner
saturn
practically
promptly
##esterol
contacting
referees
##rations
##witz
playful
milner
islamists
cholesterol
gale
wad
stella
plumm
michele
bolster
calmly
meltdown
calderon
medicaid
kut
##mont
innings
##alg
forrest
##imeter
leagues
inviting
thriller
tubes
giffords
bella
spiders
cress
accounted
invention
failings
iranians
mentality
£600
##iates
##dock
smear
colbert
frontline
rupt
ringing
cooler
ipads
distressing
reigning
nissan
adrenal
wen
##uating
robbers
bruised
flexibility
ceasefire
intricate
##ansk
coch
inval
bitco
briefed
coordinated
graeme
wiggins
##igne
hardship
amputated
bites
watford
negotiated
##charge
predicting
dysfunction
unconstitution
haunted
sentinel
irreg
choir
radioactive
mcdonnell
##ifi
staffers
conditioning
output
gymnast
eter
##zel
fearful
benefited
##holder
kirby
mocking
gratitude
baked
##rt
mayfair
humid
100m
lunchtime
separatist
endorsement
semifinal
irregular
##bec
courtney
macdon
gamble
##ammar
publicist
bernie
roland
trespass
croydon
thumb
allergy
sunrise
unple
clarence
proxim
brakes
recounted
highways
behaved
feeds
mund
inad
looph
incap
rojo
operative
moses
purchasing
etc
marshal
cheapest
##osaurs
hotspur
tractor
coke
inund
lawmaker
##velt
cheated
collectors
injustice
levin
clut
outing
playstation
chev
kyr
ecstasy
tabloid
##bons
thugs
saatchi
##istical
craze
##laus
caucus
tossed
hancock
baham
##cock
##irth
airborne
testament
viewer
borne
hallway
hp
gloria
650
lively
##anas
toby
##itating
burberry
solicit
buttons
atrocities
pall
contend
dictators
##urances
needle
paramedic
sevilla
gibraltar
sof
sofia
warwickshire
improv
inclusion
applauded
comrades
marl
dess
wart
ascot
intol
charism
finishes
##enzo
admiral
precedent
millennium
adjourned
mormon
beau
##iolet
ballots
compliment
activated
bloodshed
##gaard
notoriously
surrogate
##icz
reacts
hak
monis
coy
downloaded
mayer
humane
strewn
effectiveness
cocktails
gently
singled
bulg
barbec
resemblance
dentist
subsidies
jacobs
##13
whopping
##rox
severity
provisional
ct
##wind
resent
commod
commentators
##esha
pillow
dodge
sandwiches
beneficial
expelled
roosevelt
proximity
aly
gays
kan
##owers
polite
##kees
gunshots
equity
embracing
berkeley
htt
##edia
paddy
microphone
zurich
vid
##cat
crushing
handy
afghans
overcrow
concussion
embedded
merchandise
tornadoes
kuala
##abul
confusing
overseeing
crawl
nottinghamshire
gwyn
enquiries
ud
##ovo
##ikt
translated
thunderstorm
liner
##aton
bets
whel
##staking
chau
prote
mortar
architects
mistakenly
gorman
housew
painstaking
heartfelt
silv
harassed
sloot
cents
##yen
parental
excuses
royalty
browne
paterno
pundit
extravagant
tucker
chanted
landmarks
manifesto
cou
##jiang
unhar
expired
##urrence
sliding
sitcom
melting
kuwait
nord
##usp
disprop
sacramento
unharmed
kou
lug
##fund
##bron
misses
branding
legitim
settlements
barnett
stitches
reminiscent
disproportion
ain
dm
kell
intest
roommate
kingston
flynn
wildly
swims
literary
recreational
jed
nud
stalled
elbow
cardboard
fashionable
fleming
boasting
cair
tate
insiders
rhino
courageous
guru
gaps
uae
abortions
canvas
slower
unpleasant
vamp
##cos
##omon
simmons
earthquakes
caffeine
##icism
wasting
bricks
defam
catholics
dimension
dundee
nra
##ados
triang
savvy
£70
elevated
kroos
##bol
##fi
##ente
alight
bogus
harley
bully
remembering
poisoned
bromwich
botox
##pi
framed
allison
inspections
limiting
circulated
insurers
brittany
jurisdiction
auss
dos
suzan
##izable
availability
guarded
contributor
mint
structural
authenticity
toppled
##nis
trier
steer
progressed
piles
pyram
accurately
heywood
stronghold
##mal
##amas
outcomes
peril
booming
pasta
grammar
embarked
assuming
manila
##ailable
traded
rochdale
emper
##ovych
conversion
humiliation
employs
pour
wipe
estonia
terrier
casillas
conscience
trevor
topping
##illes
hauled
##abal
accuses
payout
##ovsky
tumours
humiliated
macdonald
##osures
##anton
##bride
hydrogen
##pour
resh
barrow
extortion
260
777
overwhelmingly
adverse
tended
##anity
unfairly
censors
##etz
irepor
slowing
corpse
scooter
wishing
determining
dissent
enhancing
reopen
##icap
lenders
muk
compr
confirms
£24
sweeth
batsman
sheen
crump
marrow
indications
admire
mcderm
malaria
conspiring
implementation
highlighting
dumping
landslide
jaws
mama
worcester
##inky
regards
pulse
contested
drummer
condemnation
distinguished
##andan
contag
1000
varied
lumpur
eriks
excluded
cain
defer
##tings
schiz
prevents
graduating
yas
##lc
hash
twicken
socially
avon
solitary
cesar
osw
spies
arlington
hamza
bert
maneu
twickenham
dmit
ner
shrew
upmarket
legislators
hugging
pry
chats
scent
posh
workshop
apologies
litigation
mi5
mls
##zen
suites
weep
wrink
cultiv
bungal
impaired
affluent
##otive
##este
##iedad
volunteered
flashing
kristina
samaritans
surrendered
brat
amuse
rochester
flare
emmy
##ussen
25th
simultaneously
yanukovych
##usa
drastic
evas
blades
outd
##ogo
backstage
resemble
disagreed
enforced
appreciated
##killers
3rd
ses
##matic
##olph
fruits
usage
anytime
diners
avoidance
dominance
acknowledges
unstable
ontario
onboard
forty
##ulator
schwar
chilean
salvage
pause
##feit
naive
gyp
##aric
##allah
ener
deserted
lightly
fairness
productions
hugged
trails
elliot
concentrated
unsurpr
dorn
woo
##adan
grac
founders
maya
pumping
woes
##loads
insens
expectancy
defeating
bullies
4g
cm
fizz
gigg
mats
##zing
froch
fundament
culm
woolwich
martyr
vows
##names
##imated
tarmac
unconstitutional
popping
##amy
peac
impacted
precaut
##rogen
puppies
pest
stigma
230
1959
pumps
midterm
precautions
touted
touchline
buddhist
overlooked
ya
callum
£26
swinging
bachmann
rus
##eces
##ersed
plains
kee
slick
arresting
avid
despicable
daniels
nusra
bount
dab
lazy
tumb
schult
indians
statute
annoyed
unlock
1914
enlisted
counselling
plummeted
codes
flipped
sniff
mcgin
designing
shortages
deliveries
paralysed
lak
sands
##entric
backbench
##grown
retwe
studded
scrub
hartley
energet
nightmar
protects
dense
lima
luxem
measurements
neglected
boulder
##itas
demonstrating
tranqu
aspirations
handwritten
vat
##urities
##pta
joanna
##aul
chis
resisted
##ashi
walcott
diy
scrambled
zombie
suzanne
themes
raq
sociedad
encry
darker
##arios
anticipation
privileged
supervised
8million
sears
tir
##uran
suppress
frontman
custod
7million
bounced
ely
##kan
##gov
spur
wills
premed
juarez
hayden
patriotic
synthetic
bouch
howe
painkillers
texted
gasoline
ratio
recreation
sotom
##anne
wasps
preserv
135
##otsw
warsaw
plaintiffs
spurred
noises
##afee
sami
encouragement
defining
##olski
kisses
boulev
sakho
dud
deng
rous
stump
homework
covert
congratulations
unpredictable
sotomayor
centered
handler
slope
##phere
100th
epstein
academics
proposition
sailor
technician
hale
choked
##ilda
mirr
kitty
rookie
overthrow
##rome
##irable
chunk
##bral
slash
instability
continually
£2million
unlucky
mixing
marshals
meteorologist
erik
wonders
icc
jup
rita
##bes
sto
amassed
tee
undergr
questionable
iceberg
freedoms
outpouring
borrowed
mcdermott
##uming
marquez
coupled
generating
webber
lasts
flagged
##idas
legends
domain
paths
tailored
publishers
##sbury
##reach
seahaw
crafted
damon
##ophren
£27
baines
3pm
cory
fallout
reasonably
organizing
bowler
pipes
1920s
anal
##idis
reim
drake
formid
nasri
licenses
fractures
nok
doncaster
##loo
vari
##ascular
jordanian
constituents
flanked
sag
##rio
##ifa
overly
downgr
30th
hawk
categor
##build
unspec
schizophren
##kov
propose
greig
pulis
recalling
stereotypes
headteacher
vaz
thier
alps
ched
donovan
##eneg
10am
instruction
visas
petit
sharpton
craigs
evaluate
##aukee
discarded
jerome
collapsing
luton
steroids
kep
overshad
interfer
swimmers
intensified
dreadful
##isable
cluster
ort
swapped
sacrific
##fu
hospitality
advancing
marketplace
jeep
skyline
awe
##hes
toured
##spring
continuous
paired
keyboard
traffickers
rainfor
##osystem
mancini
kitt
naugh
bloss
animation
##forward
beautifully
uncont
whisper
thrive
frenzy
jal
##inement
overh
blat
dayton
msnbc
strait
##bani
contentious
eugenie
grisly
bb
##90
##ellini
personalities
predicts
crisps
hijacked
wickets
craigslist
alas
neander
editors
convict
prosecutions
787
garnered
arraignment
unsurprising
mens
inver
hastings
##awr
slump
##uckland
forgiveness
coincidence
4th
spate
scol
imperson
barlow
stockholm
christianity
sighting
deleving
lloyds
exterior
eis
##ook
##hu
hairc
ensem
romero
##afa
towed
mickey
paralyzed
unspecified
gle
gior
hinder
##21
##inates
##church
choking
##gee
##atta
communicating
towering
gastric
summoned
sinai
jerm
lille
##with
##ouched
specim
halft
ariel
princes
sinister
arthritis
undersc
positively
kazakhstan
bahamas
abe
commands
responds
ivy
alder
luxembourg
formidable
jugg
ket
synd
lithuan
mirrors
baking
sq
unrav
grill
yorkers
dinosaur
distribute
mathieu
aquar
gupta
directing
emailed
shrine
correctional
halftime
choke
brake
drills
preacher
goodwill
£23
stretcher
jeffs
outbreaks
cliffs
patches
catering
##zuk
##oding
clot
##rys
retro
mcgr
futur
doorstep
epile
scenarios
pierce
pharmacy
parallel
inundated
##abulary
4x
##uy
sepp
blames
##ibo
glance
geological
spreads
creepy
peanut
auckland
ripp
##aby
recons
faculty
honors
##cla
curve
binge
##ocate
notices
summary
snowfall
curved
senseless
abdom
carrick
neanderth
delevingne
##ruc
crafts
pepe
183
stockp
recipients
thefts
forecasts
mccormack
rejection
remn
reduces
insane
regulate
varying
inflammation
yates
stained
inserted
discom
solving
qualifications
multim
promoter
gour
attendants
demolition
intervened
jupiter
lager
razor
yuan
intercept
medically
pickles
trader
cubic
glacier
biscuits
##adona
stellar
minerals
£32
georgian
cathy
stamps
stephens
intriguing
stag
##oppy
accountant
dinosaurs
ruben
tasman
await
fragments
##manship
mesut
kitten
extends
hampton
urgency
creators
besp
escalating
catalogue
phenomenal
cv
##sch
crowley
ecosystem
forgiven
soda
wartime
cum
o2
##rir
alist
consulted
builds
moms
madness
degener
requesting
dissident
quantities
hemisphere
##inarily
shay
##emi
broth
grams
betrayed
milw
interviewing
styled
seahawks
gosp
allig
##ensible
cleans
staten
spotting
sparks
riverside
hindu
thierry
cork
##orf
blink
connects
diameter
fingerprints
ti
vap
scaled
hospice
filter
denounced
motel
furthermore
integral
nichols
guarantees
tattooed
cites
mm
waterfall
initiated
bombard
favoured
outright
carlton
##gregate
unexpectedly
squeezed
pencil
livestock
energetic
matic
tipping
vale
##iston
remanded
passer
foam
hypoth
caylee
slay
millie
nigella
skirts
6pm
pf
##lights
##mite
##enza
adolf
liable
maradona
assists
insulin
##iker
casket
resisting
renewable
shri
sket
garry
goalscor
raff
##atham
mapping
snatch
rossi
reminds
slimming
grieve
hier
kham
tramp
tumble
1939
symbols
hormones
##oist
##chy
blunder
semitic
podolski
ike
um
downed
thrilling
satisfy
leighton
clergy
indisc
proceeded
shadows
horns
bhut
lobbying
scept
carers
goodison
demise
badger
surfers
penguin
sachs
##tub
anders
fracking
amounted
genital
practition
##oof
lacks
tibetan
alistair
milwaukee
##croft
edged
swear
invasive
kyi
sympathetic
password
eman
irene
pdf
trot
canine
protr
accessory
frankie
rouhani
commemorate
horrors
disguise
skeptical
7th
##jay
##inable
##imm
pric
alerts
conrad
acclaimed
##atorial
coached
excellence
eccentric
##oda
soy
feathers
assurances
slides
##oya
inspected
1940s
catastrophe
feminine
interfere
##xia
protections
assistants
scarred
fascinated
bakery
havoc
trierweiler
ng
zl
sah
theirs
blizz
defied
speculated
startling
kirsty
##worthy
foolish
ernest
courier
cors
hogan
prague
##emption
##avia
wishers
amazingly
palestine
ravens
##eson
willie
rooted
involunt
viruses
condemning
successes
tuss
upwards
##azer
broadband
tyres
strategist
thornton
fm
##xton
energ
median
straightforward
geoffrey
lama
##adish
stain
frames
veil
anno
£22
lerner
boulevard
nokia
##bot
weed
looming
blister
skating
##lessness
duration
pivotal
currents
hurled
kickstar
infantry
yankees
vind
wholly
unreal
strained
revival
£45
5s
bord
huck
pumped
poker
void
##overs
whipped
suu
manic
confeder
terrific
waitress
##ylie
auctioned
indoors
##stock
##ahi
swine
restoring
madd
maxwell
trendy
plummet
nile
tug
##idan
joints
gamers
lipstick
inadvert
shred
handles
##hea
abandoning
incompet
gn
pomp
##chwitz
##osition
crad
marian
presumed
injunction
singers
babys
ashore
harmless
narcot
integration
##archy
tucson
wesley
claudia
argentinian
toned
##mia
unrespons
honorary
verified
brightly
clarify
smuggled
kobane
##rical
##hot
forc
brock
##phal
metab
arrow
midday
##ueling
carolyn
##waite
exceptionally
paramount
freelance
fen
kand
##cale
##creen
##ei
illusion
torso
hewitt
playmaker
restrained
cerebral
##gregor
deception
merchant
ramsay
5pm
##non
##entina
##thia
103
handsome
anonymously
bmi
tiffany
peop
##atti
satir
wearer
embattled
pathway
fantas
comparisons
wrecked
discomfort
gases
##arin
##ipher
impending
disregard
##hm
##uber
##oum
##abil
invaded
speculate
corin
superst
£28
pitched
railroad
accompany
gruelling
ou
fro
butcher
manus
belts
madoff
revised
priorit
deposits
swallowed
beheading
raqqa
tapped
##vial
bros
objected
postc
delic
standings
lineker
malaga
entertainer
favorites
tolerated
unavailable
lans
enables
##intosh
heavier
brazen
sarac
pushes
robberies
sculptures
crippling
kendall
bard
##mn
##orously
##uling
##ivo
swam
lara
distances
aviv
seriousness
berah
gasco
giul
inaccurate
http
##reet
##antas
coastguard
respectful
conflicting
cheng
neo
exac
##quis
commuter
perfection
snoop
pathologist
swallow
6am
cech
thur
stopp
marse
artif
basil
bathtub
consensual
scalp
oven
weston
climbers
gillard
dorothy
hick
diminished
quizzed
hock
adidas
##igno
preference
downturn
banners
hazel
veronica
exacerb
cody
pasc
##wen
prized
unoff
sheila
##ieri
huh
balancing
mueller
kristen
rift
##grove
amelia
##azir
drugged
potent
destiny
owens
massey
ranges
1940
trailing
dimit
wagner
herbert
##grily
bedford
closures
taser
hillsborough
chickens
contraception
auschwitz
tying
truce
bred
##herty
##arean
harlem
midway
watering
##olajo
prediction
implicated
abdominal
unresponsive
aided
##n1
floss
flows
elle
entr
vietnames
gutted
archaeological
vietnamese
input
fores
filthy
scrum
heaviest
reactors
receipt
wholesale
5th
nah
heidi
##thor
boge
##amphet
jeopard
expressions
emperor
upright
morale
bombed
comparable
recreate
mcqueen
moll
##ulative
brack
11pm
armoured
galaxies
neuer
crust
##athlon
daytime
106
villas
broadly
cosmet
decorations
mickelson
adebolajo
7pm
plung
##athed
regained
norris
sherman
tearing
warnock
meyer
aquarium
stack
confinement
##atorium
substantially
slovenia
caves
mri
strap
northumberland
stylist
fiorentina
bulgarian
berm
cud
lum
##fur
##atical
offspring
musk
tread
lightweight
sorrow
stripes
haitian
hl
lub
weights
emm
keepers
builders
richie
malik
hoard
hunted
carpenter
berahino
4pm
curs
jared
##icef
manned
belgr
extinct
superman
wildfire
patrons
stadiums
maureen
python
vans
rebek
devote
translation
apprehended
homophobic
faded
##bies
brok
careless
prefers
##brand
rouge
feminist
kemp
unicef
clan
roast
##awar
##fica
wrongful
packet
mascot
praising
##azzi
advisor
adaptation
greeting
seafood
peoples
##about
lauder
profiling
adopting
relieve
whistleblower
bumper
angrily
chlor
##istine
##ibal
##ikers
benfica
cruises
beir
alpine
##loff
idiot
##balls
£120
finalists
ambush
dinners
occupants
consultants
hungarian
navigation
staple
refriger
pact
##kk
##nard
orte
perkins
runoff
princeton
translate
dazzling
zen
##rit
##pc
##icult
##cha
loop
claude
readily
malia
1957
acquaint
listeners
vicar
passwords
vertical
rebekah
heel
spoon
##aste
##izon
##hips
discred
closes
circulation
cornell
contracting
##islav
hangs
functional
emphasized
francesca
mk
operatives
factions
socialite
rampant
catalan
nominees
staircase
apprentice
qantas
alves
turtle
classed
chiellini
semifinals
bounty
ai
beet
##rious
herman
justification
researching
curator
coping
ultras
rosa
objections
dunk
compounds
beforehand
liberals
youthful
hawkins
acquire
embassies
precision
chatted
jacqueline
cervical
plunging
##andra
manson
##isson
donating
philp
circled
bobbi
laptops
camouflage
nausea
schultz
rn
shawn
aman
##itez
servers
reservations
sectors
beheaded
wolverhampton
chore
##ifax
##astically
expend
harrington
malta
marriott
dwell
jenson
##furt
worsh
retrial
##zzi
dyke
oswald
kickstarter
pretoria
sophia
rabbi
snapchat
lecturer
compassionate
g20
pens
##bay
prayed
pricing
awl
schoolchildren
informant
masses
tomato
overturn
chandler
5billion
##ionage
deen
reclaim
parc
transmit
owes
gorilla
depths
slaughtered
penguins
erect
reeva
distinction
levi
flavour
cricketer
cummings
premeditated
##rings
charred
1948
taj
portrayal
ortega
##oise
##iga
##abel
foundations
obe
moran
snub
economically
kidneys
insurgent
exceeded
uproar
cir
faint
yar
amen
farc
villain
generosity
machinery
acknowledging
reneg
tendency
browser
leices
autistic
individually
regulated
shovel
radiotherapy
tink
yam
##acas
chilly
##emma
watchers
captors
benitez
hurdle
poorer
cookies
shutting
concludes
smugglers
mullen
concordia
kumar
##cade
damn
frein
##ermo
mortg
jenna
adoptive
quantity
sidelined
fundamentally
fatt
bea
##olta
wines
##atories
urges
implementing
undertake
inflammatory
jasmine
narcotics
woken
consort
pops
professionally
disrespectful
gwyneth
nightmares
beng
dons
butch
polio
apoc
companions
woody
oslo
sultan
leicestershire
possess
burma
tomatoes
lorraine
pardon
resembles
intercourse
##a€™
dze
##entional
succum
ramadan
baton
southwestern
jellyfish
arbitr
shea
clich
parry
happiest
edges
debated
circular
allegiance
printer
adventurous
porch
bugs
bravo
bridesma
paranoid
dzeko
550
##ghan
##ryst
bliss
downhill
commute
receiver
damian
torr
penthouse
partnerships
awlaki
##around
sapp
##abs
upbr
bladder
societies
illustration
revoked
timely
##borgh
disorderly
##patrick
##olit
isil
forefront
educators
disappearing
hampered
loudly
fiercely
insensitive
osp
puff
##wyn
shiny
artery
letterman
abduct
wealthiest
##onymous
cassidy
midwife
amusement
brighter
scathing
goodwin
184
anguish
garment
rowe
axed
lacey
wawr
beers
promotes
opting
hazing
tevez
##ospace
turtles
destabil
##limited
1955
unveil
poetry
acquisition
fidel
##wered
##enary
unlimited
arter
104
combining
repeating
intentional
inhabitants
tainted
vaux
polled
##awled
mcafee
balm
copeland
essay
ricci
scholar
monarchy
wreath
kangar
kilograms
tart
zaw
brunt
peta
barrage
shameful
inventor
adrift
algor
ortiz
beirut
ouster
##feller
fringe
##velope
admiration
camden
sharif
sleek
melted
ampute
intimidating
disqualified
dicks
nish
quitting
addicts
impover
guzman
buys
specify
clarity
unleashed
doss
##4s
worcestershire
impart
magu
microw
thorpe
##amphetamine
glee
##ilight
seism
enacted
000ft
farther
greed
bookings
armored
cyst
maternal
traits
confronting
mogadish
disgraceful
isabella
persecution
kram
rapp
racked
##inqu
##utting
noel
backup
condoms
espionage
oversee
disgust
enlar
arraigned
undermined
saracens
algorith
##berries
medall
britney
102
slated
organising
pots
understandably
audition
lamborgh
blogs
reproductive
vernon
mogadishu
hib
sime
##orld
##psy
stemming
cordoned
##azorla
bracelet
bise
cazorla
##kowski
envelope
filters
risking
transporting
mourn
scarlett
interactions
##hyd
consolid
untrue
whelan
stare
informal
ballon
1941
fibre
aime
##atible
cannes
moreover
presley
indirect
jeop
1958
oversees
##htar
benson
hr
twilight
halifax
motives
strengthening
cuis
hosni
jakarta
assignment
lifeboat
harb
testic
mushar
1942
aerospace
philippine
translates
piper
obstacle
fountain
jeopardy
dong
giles
ropes
wires
##du
characterized
assertion
##yder
traveller
execute
fifteen
emulate
colchester
depicts
demographic
persian
morton
ibiza
loftus
kepler
annoying
##oux
elaine
bloodied
handsets
cobb
bucks
fou
##asis
##amins
##odies
soar
smalling
verte
revellers
sparkling
kara
shaved
countess
consular
certainty
combines
45pm
nyc
deteriorating
dag
##bard
##onda
statues
tackles
lovren
upbringing
vauxhall
bj
##isance
byr
##ifiable
goat
attire
donned
cookie
splitting
ricardo
instrumental
icons
##dal
##fax
##ustomed
clearer
ruler
jodie
wawrinka
##imer
weaker
canary
##ierrez
llor
martian
##liners
copa
danced
escalation
grievous
rebellion
##adays
comfor
overlook
##quately
##gna
##ilitating
toxicology
sanctioned
##jes
reyes
mckenzie
##echn
fries
soho
nowadays
calum
rugged
##yne
##jen
##uto
##owitz
depot
varieties
facilitate
goalscorer
eased
kne
flatt
airliner
bombarded
documentation
warmth
liquor
plaque
hilary
improvised
gascoigne
ost
centimet
schwart
imports
##aird
needles
mechanic
kathryn
##onut
sailed
newcom
hopeless
boundary
solicitors
aka
wards
spelling
mineral
farrow
forecl
logic
gutierrez
incentives
dishonest
highland
starved
girlfriends
ceremonial
anthrop
departing
shroud
institutional
##daniel
##millan
alpha
paws
##ilic
##aca
##igs
leh
thoughtful
licensing
infrared
khalid
spearhead
cosmetics
impoverished
kun
##thood
thanking
barns
alej
cheeks
sequel
leapt
disconn
heartbeat
speedy
suscept
raiders
renting
obstruction
philpott
reint
develops
qatada
helmets
upgraded
emir
ballistic
rapes
assessing
puzzle
9am
##fman
##ioned
stacked
barking
armour
organize
interpol
palsy
dickson
vidal
##eers
##osur
desirable
marker
270
galleries
vandalism
hairdresser
chimpanz
hq
edu
caliph
bushes
honesty
lapd
tahrir
worsened
bespoke
marseille
kom
##hed
unm
seym
apples
##aleb
explode
snyder
##beh
emerges
pauline
normandy
charleston
##peace
alvarez
involuntary
lately
##nr
schettino
surfer
tarn
pregnancies
##baum
miscarriage
punk
inhal
shouts
seating
##ipse
transaction
165
terminated
replicate
proposing
naj
butterfly
composition
leno
tlc
chong
sebel
mee
musc
ideological
£29
##standers
##akov
trainee
heartbreak
wooded
jeb
jacksonville
methane
spectator
echoes
negligent
##jana
bew
alc
decap
schwe
detrim
slater
155
associations
##oxide
pollard
lewd
foxes
ibrox
bacterial
convenient
##zhou
legitimacy
ump
##asi
brushed
businessmen
lorenzo
dyer
revolt
barbecue
contagious
##hydration
8am
ailing
mcdaniel
circulating
planting
futuristic
musharraf
wicked
unim
lebron
edmund
mcbride
augusta
navar
molested
outpost
sebelius
ego
##urable
bram
##ulton
rested
goldberg
merry
compares
mujah
triggering
vaccination
vikings
tes
hab
registry
runaway
gregg
112
irwin
replies
##ieces
frankfurt
dwind
festivities
fis
bystanders
howell
splashed
cowboy
nuisance
unanimously
unexplained
sincerely
##wo
##etical
goodell
litres
£800
##aic
##reb
abed
topshop
devils
messy
competent
erotic
peterborough
classrooms
abramovich
fsa
wight
stow
flank
strains
bbc1
daunting
##uddin
correspondence
hooded
disturbance
pudding
glossy
uncontroll
unans
airfield
seniors
streams
explored
immort
pornographic
fossils
dude
idyl
bests
leveled
##autical
fatty
thinner
assassinated
wrapping
alarmed
##ichi
compelled
steward
supern
mosques
##heads
exploits
superhero
##esville
prud
residency
flurry
likewise
restart
pretended
catches
fragment
stamped
prohibition
bolivia
##wald
accol
genre
##parable
favored
offerings
fuels
transplants
congratulate
decreased
inheritance
##waves
transf
cardi
welch
smuggle
evangelical
bungalow
bisexual
tud
##zon
##atal
realizing
##plus
irony
debuted
accessing
floated
rebuilt
compulsory
kag
authorization
candle
1947
scrutin
lapse
lawful
##iji
definitive
airplanes
festivals
meyers
2am
850
cue
pax
##rador
##elu
scho
dye
gillian
pumpkin
whisky
aristocr
dull
shrim
comf
engr
estates
queues
sprin
banging
reconna
rife
##upp
##inum
aless
unil
stewards
subm
##ographing
galat
unofficial
dill
stil
##ersfield
useless
draped
metall
classmate
checkpoints
fitzger
pins
tet
slum
perfume
violin
massa
lowering
discoveries
tempted
homeowner
reinstated
mortgages
##iently
armen
verizon
packets
productivity
analyse
banksy
concede
glittering
kimberly
##mere
##ogs
schurr
starving
victorious
strengthened
lavrov
sergey
duggan
embargo
turbulent
bluet
nostalg
gull
##gev
highlands
elena
financing
ecb
disneyland
alfie
cynthia
kai
ingest
frantically
notify
monter
##roots
medved
elusive
emergence
halluc
wheeled
##oeuv
jenner
cosmic
censorship
nim
##press
##anks
numb
pressured
salah
holden
verdicts
scanning
siberia
schwarz
ole
pogba
##acist
complement
footed
##byn
treacher
aliens
##birth
chung
##rier
looting
londoners
informing
booker
enraged
guitarist
mashable
##iktas
unsurprisingly
reconnaissance
daly
##chen
unesco
lookout
##aldo
gangster
reinv
harassing
orbiting
##oys
announces
empathy
domest
behaving
englishman
besiktas
lazio
abundance
unanswered
hips
tapping
compact
monopol
smar
infidel
hurry
voic
jacques
bridget
intimidated
unconv
vicky
namely
ensemble
giorgio
bum
mikh
thib
accustomed
desired
slender
nationality
hostel
disappro
vonn
huddersfield
twenties
conferences
lamborghini
rach
rex
comics
spun
spacex
methamphetamine
seaworld
schurrle
bluetooth
eerie
##nt
##oway
chess
crest
peaks
moammar
warwick
swipe
##emanja
ninet
renaissance
aimee
fitzgerald
auctions
pse
tinder
##bold
##luck
beams
editing
extensively
reductions
murderers
guardians
derail
tyre
##gae
carlisle
peruvian
##kal
booze
milky
detector
ignited
literacy
gilles
alvaro
outdated
seymour
dul
##dman
carving
chartered
accordingly
windy
cellar
##bao
vulnerability
comforted
nemanja
fey
drif
40th
volks
ventil
notoriety
lecture
undergrad
hln
hence
rolf
wob
##23
staunch
chir
clinging
callous
belarus
mayo
organise
easing
greenpeace
erica
conspir
turbines
stratford
gch
xavi
##kusen
spaw
calvin
##anni
##enched
squat
##swell
computing
shopper
poroshenko
obliged
staples
lashes
traumatised
swindon
tumblr
##uza
##inatory
##eded
##asse
##olia
goose
##ollaston
berdy
drinkers
##ridges
awaits
vitamins
patrolling
inadvertently
berdych
dell
tia
##apest
canon
glitch
114
##eville
juror
tanker
nikki
viktor
cured
lighth
##icans
spitzer
slack
##shi
cameraman
280
sticky
leverkusen
rainforest
xvi
anwar
seren
earrings
wrists
airing
glove
garrett
1954
magnet
pinpoint
grayling
ribbon
fracture
adebayor
kindergart
reel
excer
photographing
continuously
11am
##ovirus
fairfax
budapest
miriam
dismal
nutrients
ferocious
medvedev
higgins
##laz
##arf
##olley
unified
##efe
timet
fingerprint
gauge
shrinking
stoppage
reli
##ashes
jude
lifes
stems
neurological
littered
reconsider
##ido
forem
manoeuv
carla
harrod
footwear
nationalist
debit
maduro
problematic
transforming
resilience
inconsistent
##asaray
ireporter
3am
kt
reus
quo
mighty
netting
gardening
unsuccessfully
assumption
evolving
rooftop
cuisine
gchq
shia
outline
endurance
jobless
greenland
unfit
utmost
unsusp
assessments
distributing
dalai
eugene
orphanage
blizzard
kol
vow
entourage
basin
sufferer
hispanics
pundits
pilgrims
##mins
falc
brightest
1952
andreas
accelerated
binding
eclipse
bouchard
shap
grilled
medi
slid
genitals
stepmother
bubbles
pts
sothe
##kon
spi
##iviano
payday
funerals
termination
curse
gallon
##azeera
adjusted
bilateral
##umaran
pseud
sotheby
whitt
trinity
outreach
flush
warrington
medina
timed
counterfeit
adequately
landscapes
broadcasters
nutritional
renovation
absorb
sounding
uc
doha
boiling
protoc
millionaires
walkers
##oza
burnham
galatasaray
ci
imam
##icki
claimants
330
reacting
muddy
morrisons
airstrike
recycled
allergies
daredev
defamation
jazeera
lol
##atus
##ifics
overfl
poo
souven
chooses
squads
scenery
nye
undertaking
enrollment
mcmah
##horn
monty
antique
suicides
heinous
sweetheart
remnants
gong
hank
travolta
dealings
spanning
culp
dickens
mikel
zlatan
##wing
thy
tril
##oky
hospitalised
majors
revis
rhys
lobster
thermal
preservation
lund
raged
##leman
choud
##oughton
bark
legg
genetically
specifics
winding
processor
witnessing
jewels
mountainous
sausage
dmitry
##su
stiviano
haunting
amish
overl
##acht
flares
modi
##zzy
platinum
bubbly
fulfilling
relegated
groomed
advertisement
employing
cancellation
aussie
upbeat
doherty
flocked
thrones
##ressive
cartoons
##cripts
asteroids
troopers
foremost
##fig
slate
skid
harming
snowy
optical
rallying
wolfsburg
sikh
offside
##assing
flung
claus
grips
lesley
algerian
protocols
clap
rodman
frederick
grassroots
obscene
caesarean
wizard
multimillion
##elka
withstand
##ysis
delete
trustees
italians
rendition
interpreted
adrenaline
ion
forster
##akis
##acho
quiz
##ango
emblaz
scientology
derived
dismember
7am
nint
##wagen
shamed
sagna
amal
skier
greets
quebec
undet
wakefield
lockdown
goldsmith
forge
stip
carmen
guill
mcgregor
photosh
£3million
casually
shrug
sodium
sacrifices
rocke
inconvenience
vouch
##stown
rox
evra
secluded
elis
trades
logistics
uruguayan
cafes
##adr
adele
usb
systematic
anticipate
##vette
unsuspecting
##16
shrop
noisy
##itsch
##burger
sprink
tynes
galactic
compensate
rejecting
telecommun
cressida
souvenir
9th
pique
##count
##owered
vein
insults
rodger
rowling
corpses
lup
paces
whirl
willian
##ahar
fours
discour
economists
misuse
bribery
discriminatory
architectural
unreason
unauthorized
ping
explet
##flies
hawking
fulfil
molecules
shropshire
ail
taw
##tic
##gencies
reind
feinstein
defiance
volumes
vera
mammal
chorus
4am
plague
courtyard
mae
messenger
malfunction
karachi
freezer
stubborn
betrayal
ducks
isaf
chopped
##agements
noticing
helena
emig
sliced
artef
##iko
opposes
cosy
yachts
cantor
busted
gotta
kv
##gem
dehydration
trolley
remed
veh
cycles
rodney
desperation
picnic
dilig
prominence
##lis
##igu
sonia
denim
finalist
dui
collectively
phrases
midwives
verbally
crescent
dai
andres
##icker
##orns
sund
lotus
bodyguard
burd
photographic
epa
##roads
jessie
bashir
mugshot
bouncing
maguire
emblazoned
cong
crom
amusing
marque
chrom
inject
cabins
gmt
lauer
bosnian
nintendo
nem
parap
wraps
glim
divisive
##took
manufacture
napole
disagreement
eton
nr
oman
##leod
unbear
spouses
orion
##ibu
colder
barge
sixties
subsidi
£90
oversaw
alicia
advant
occurrence
cheet
rowing
1956
culinary
profitable
converting
baghdadi
ditched
wikip
distinguish
kale
##achim
edwin
readings
##incts
electorate
understandable
nascar
evasion
susceptible
ying
chate
cramped
##ondo
britann
marketed
bales
practiced
wc
##cker
reapp
perched
##quins
patt
tragedies
zaha
##cup
lea
arjen
debilitating
sanaa
mouths
delaying
jamaican
rockefeller
##enheim
##itism
abig
adher
sciss
engagements
northam
yorker
tyne
tasty
coutinho
aiding
fulton
niel
ruff
##run
##18
beacon
webc
##odo
satan
labrador
ranged
negotiation
tuned
bilbao
mimic
thunderstorms
khamene
torrential
dane
joc
zoom
tost
alright
evade
perse
118
possessed
ava
##track
sabot
meadows
exaggerated
scolari
huhne
##pie
whim
##amil
##igating
dea
marino
becker
justine
stride
salis
anore
alam
offset
reprim
meh
##being
landings
palt
tvs
hawaiian
##eaux
revered
weiss
##anski
incub
swans
refrain
ravi
automated
cynical
fend
ji
##bee
##evelop
evenings
##aughlin
rests
gunpoint
vald
##unta
sorted
darfur
1943
reinforced
ek
##cases
##mental
surplus
sugary
disadvant
onion
##olent
##ivable
plas
newt
marou
superstorm
terminally
broadwell
louisville
bono
waterloo
devout
fearless
traveler
gao
deterrent
rewarding
obstruct
hinds
szcz
ignorance
artifacts
harrods
6th
lays
moust
##wave
conquer
placement
defences
nightly
transp
sweeney
volkswagen
tyneside
underp
109
devised
massively
athe
chauff
##jesus
hose
##cross
##levant
108
##after
candl
curled
striped
rudy
ovarian
velvet
ineffective
bhutto
muscular
nipp
ripping
emil
headphones
generals
mccoist
##ihu
upscale
bunny
irrelevant
mosquito
arrogant
spontaneous
voicem
##kell
onset
marx
cheque
malm
inflated
tonne
1918
adorned
miraculously
duff
oncoming
##actory
influences
bitcoin
sketches
faux
haunt
nex
crises
winters
kilometer
sewage
siberian
wikipedia
hmp
##opath
upload
monks
statut
illust
surprises
wildfires
doubling
laurie
gaze
plotted
£10million
hypn
enrichment
congestion
begg
beaming
unmarked
trending
##ayson
overtime
stealth
sanitation
lifeless
honol
##ophys
criticizing
songwriter
papar
exploiting
subscribers
ef
h1
rewr
chants
flaws
assign
harman
dogged
concessions
batting
dermat
northamptons
vander
innes
##enton
##adh
reza
graft
meghan
##merga
##anga
info
legged
debra
garrid
separating
reassured
overheard
ritz
##onge
crumbling
americas
khat
smells
wandered
laure
resilient
custodial
honolulu
gogg
deform
##ennial
inflatable
dreamliner
renamed
tanning
repaired
epilepsy
tus
##alay
dejected
flattering
ella
stripping
sharma
mertes
californian
bergen
exclusion
observing
leanne
prohibits
density
northamptonshire
nak
pies
pena
##wrec
##icter
eleanor
groundbreaking
radcliffe
intoler
apt
emanuel
backers
veterin
precip
vigorously
gowns
##hin
##atural
##igley
dex
roaming
edgar
directive
##ieto
bedfordshire
ruiz
unsc
##guided
dustin
scanner
ethiopian
evolve
mcmahon
##eca
liar
prescott
knowles
wellbeing
markings
cardiov
cereal
unwitting
prolifer
crammed
##icultural
alejandro
vehement
abigail
statutory
cardiovascular
stricter
battersea
bleed
dusty
withdrawing
francesco
scouting
profoundly
quarterfinals
filipino
mertesacker
mt
withhold
##ocating
ennis
goall
grit
coaster
interval
headset
128
snapping
##places
320
unprov
dolan
bipolar
hul
yose
##erman
##itous
rees
perks
decker
stunts
actresses
alec
rendered
gusts
unanimous
gcse
caliphate
cuff
tod
##aggio
inciting
relocated
presby
edmonds
redes
catap
jointly
qatari
huntington
gastro
volleyball
peshmerga
auburn
waugh
perimeter
judith
freestyle
criticise
endangering
khamenei
unprovoked
cip
eup
peck
##nia
thug
##stad
aggregate
##quay
prescriptions
210
browns
dragons
extraordinarily
heiress
adolesc
charismatic
haq
drastically
joachim
petra
labs
sportsman
spirited
rosemary
toddlers
satirical
consortium
foy
ioc
cane
nova
perceptions
impe
longstanding
sway
drip
bursting
hs2
contingent
aesthetic
folded
shelly
##orting
infur
takeoff
putt
midweek
cald
strips
scandin
parenthood
consolation
plaintiff
subscribe
cecil
cels
g4s
puss
##bath
##lar
emergencies
classics
turnbull
##ofol
sheridan
johans
duped
rusty
sylvia
naughty
unimag
##note
eviction
##achment
connolly
davey
counselor
anchorage
ovation
disruptive
ponder
keegan
marouane
raz
wong
woe
##alan
shave
brenda
##istle
perished
laf
progression
##govern
##arreal
eliminating
accelerate
councillors
woj
reeling
##berman
defoe
propofol
steele
discreet
##bags
attributes
culprit
slovakia
ptsd
illustrious
omin
pele
##lp
maynard
villarreal
primaries
tighten
logged
announcements
buttocks
sleeve
obliv
sacking
zac
anelka
stif
plush
contests
securities
mao
profess
grande
forensics
bastion
agonising
anast
saad
negr
downfall
regimes
glue
ironic
constructive
£85
reindeer
szczes
dashed
##ivated
arose
##perse
rubbing
professionalism
cooperative
taller
unnot
prohibit
tissues
couture
paralysis
zawah
idyllic
paltrow
uh
##bians
stard
quart
defying
goodness
107
cait
randomly
laced
ria
##core
loading
coe
stras
holed
revived
gods
selective
##henge
tanya
kirch
granting
arranging
tampering
eagerly
kylie
oste
oasis
pes
pity
pike
##sec
##iless
##otine
##allo
robyn
guiding
modeling
jennings
sukumaran
szczesny
fanc
pag
tighter
trott
##onds
##izia
vargas
mclaughlin
beverage
britannia
tuck
tiles
anita
bem
pristine
boiled
##mering
reliant
elton
internally
angus
samir
dads
vastly
tags
orchestrated
chevro
iniesta
herb
unimp
exempl
disperse
knif
poaching
sufficiently
width
paddle
rabbits
vinci
hanson
##nett
##eday
byron
acrob
collects
hackney
dietary
locking
paedophiles
handbags
sylv
panorama
ultrasound
fost
hikes
lush
zuma
chil
##ogne
##itte
slipp
145
cleaners
carriageway
misunderstanding
lom
uy
vague
##adors
gros
airs
demons
geography
landf
eastwood
psychologists
haircut
##isans
##isco
fres
weinstein
testifying
cupboard
excruc
filmmakers
burglars
selecting
sleeves
advantages
excruciating
hue
scuffle
##ibur
morally
hurdles
appliances
documenting
magnate
coconut
flanagan
disguised
peshawar
##lift
##tale
stash
chern
unatt
homec
privat
limp
afforded
methodist
concepts
brewing
stimulate
paediatric
byrne
pizz
##ouk
aligned
gripped
riddled
cocker
brunette
spacious
renovated
affirm
dessert
chevrolet
ness
##ng
##icates
##elho
blitz
winchester
provoke
sleeps
transferring
tuna
footh
hutton
liaison
fronts
panoramic
prevalent
##hum
##uments
scour
parody
trivial
23rd
siri
##jack
attic
surged
footing
randall
jayden
mutil
prematurely
marcelo
routh
inland
shaping
chast
scaff
roar
marred
downward
countdown
skim
authorised
payroll
grader
treasurer
suck
consistency
concentrating
fulfilled
humidity
cling
carne
schae
##ribution
sexism
entertained
##estyles
stirred
pandas
lingering
dynamics
overshadowed
gom
rethink
loot
monuments
pham
server
violates
billionaires
candidacy
bowls
unchanged
ounce
gospel
lill
rak
sop
##75
arise
upt
adel
doe
impass
freight
antiques
ticking
knowingly
omaha
interface
crippled
tostee
h1n1
xl
##fir
##onium
regr
brim
cooke
emory
squal
lifestyles
cataly
sprung
easyjet
gardener
bursts
bravely
molestation
dictatorship
timetable
##cam
aden
sox
apost
15pm
discounts
powerless
taxis
criticising
fanatic
warden
barbaric
broncos
conceding
endangerment
unnoticed
gye
wta
##atement
##oly
hepat
sported
expire
##retched
jarvis
confidentiality
bambo
sobbing
retrosp
celsius
gan
jug
yew
heist
deeds
parcel
este
awak
##loch
embark
keynes
resolutions
ecstatic
toff
unthink
promotions
devotion
henning
objectives
dvds
sobbed
deflected
reptile
duffy
##iak
##acements
adhd
overseen
hype
crawling
ligament
bustling
mi6
tutor
absorbed
cska
extingu
variations
##quets
strand
robbing
pricey
shareholder
texture
favorable
£65
fascination
manipulated
vampire
treacherous
duct
fusion
stacy
##thwaite
traps
abide
installing
arrows
subt
waterfront
mindful
volunteering
narc
mentions
##yards
##inas
blur
recolle
slur
swung
someday
##hoea
bayer
diagnose
sophom
punishments
cheerful
unlawfully
abruptly
lister
wyn
##fam
shrap
##osion
proportions
clinch
beatings
rosetta
tasting
entitlement
spaceship
moroccan
orchestra
slayings
##bat
##jamas
intermedi
insanity
bathing
exhibited
forecaster
mitigation
shrapnel
migno
##uki
expires
sleepy
cleanup
terraced
noticeable
sergei
cuddle
impartial
kindergarten
mignolet
biod
kov
lust
pem
stocked
isla
chrys
pee
##ittal
humm
equest
225
stormy
bulletin
mechanics
alexandria
caucas
renault
ligue
yon
##oi
##agles
##neill
publications
paints
##ographical
basics
dreaming
masterpiece
reservation
pontiff
chewing
hanna
sahar
strings
governmental
banter
pints
dominique
1936
coincide
quadrup
contradict
alligator
hath
##44
##aris
sushi
anni
ensued
analyzed
commercials
jurgen
reminding
escalate
falkland
simeone
unbearable
5am
dn
hints
munch
shoved
##agi
##reeks
navas
bowe
fanatics
##oulos
cruising
##heit
bloggers
stemmed
romeo
java
livelihood
margins
showcased
scooped
goalless
pits
##rof
basle
masc
khed
slamming
eh
lomb
thwar
##anu
##alds
##stop
ish
prigg
reliance
##weigh
deplo
souls
staffer
diaries
hostility
maloney
harmon
sinkhole
froome
schwartz
eduardo
tudor
ostr
##100
unused
fla
persona
smithson
##oba
windscreen
uniformed
rasm
##sby
willow
outweigh
invit
extensions
rulings
turnaround
leary
necessity
cruiser
pitches
mandy
disgrunt
tulsa
bibl
curtains
kfc
nib
##ogh
##elles
overj
phd
warpl
tarant
improves
mindset
sweater
laurence
irishman
lynne
pelvis
middlesex
vendors
conjunction
surpassed
fences
ting
##los
alumn
upward
##phem
viii
undec
tammy
brilliantly
evaluated
bumps
huntsman
bermuda
chateau
bunk
uz
##fold
newer
quoting
##uchy
skrt
funn
surrounds
skinner
gateway
substitutes
skeletons
retrieved
overjoyed
keller
lenses
quran
##orig
aloft
tram
manny
obey
179
romelu
malt
honoring
curves
traject
circumc
levine
naples
tirelessly
ludic
succumbed
microwave
skrtel
ome
##stones
spoof
silhou
charlene
stockport
bonnie
stringent
mcdowell
skyscraper
vieira
yog
worm
feb
mauled
regretted
scramble
embryos
endeavour
dexter
8th
##bet
allocated
consoles
safest
replay
castillo
sprinter
nathaniel
dilemma
2pm
dary
##cut
leuka
orc
usain
motoring
chelms
shipwrec
beginnings
tummy
inappropriately
croatian
crocodiles
kidnappers
bogey
smarter
homecoming
cages
sled
uv
decay
friendl
harle
filib
authoritarian
ledger
towels
stonehenge
dunham
midfielders
hijack
josie
perverting
##icaprio
immortal
ejected
nast
nautical
##ilion
##estation
scant
elise
saturated
recognizes
ceil
treasures
sucked
thighs
bumped
ingen
ants
spiel
116
freeway
rocking
bowie
##olitano
motto
##igated
##imental
monsters
fathered
limous
mcclus
punishing
farmhouse
constitute
napolitano
erratic
gymnastics
bordeaux
yosemite
ngu
riber
forums
chihu
serb
relates
asserted
allev
sourced
bondi
##vetic
sympathies
cairns
dicaprio
faz
##cers
##elman
leaping
aclu
precar
loser
reno
woollaston
dut
dipped
jp
appropri
parr
continents
pledges
##walks
lankan
solemn
provocation
leukaemia
yel
##wash
##anan
monaster
jovetic
vii
jails
encomp
variation
examinations
semin
weaponry
roofs
ankles
lagos
##amiliar
vehemently
gt
mv
wrang
debuchy
##afal
guarding
dismay
mackenzie
premiums
proteins
blistering
renegot
presbyter
hepatitis
5c
gaw
lec
anz
dejesus
slams
standby
calib
owl
tricked
biker
incorporated
descendants
moisture
redundant
jang
yug
spam
abl
peb
nood
chrome
listens
rosenberg
proceeding
poisonous
hurrican
catalog
kashmir
mikhail
lime
unaff
unres
grimes
thereby
imitation
edible
footprint
caul
ballroom
missionary
derailed
scenic
crystals
pigeon
internationals
##coran
garrido
ratt
alarms
scler
flared
popul
januza
solomon
managerial
unfamiliar
participant
weaken
logical
bearded
orangut
spiked
inhib
haj
abby
crock
peaches
overst
##gett
micha
connell
enjoyable
extracted
oriented
leverage
cholera
priceless
januzaj
##eau
intel
corcoran
communal
furry
shipments
linkedin
quantum
##kirk
swathes
overrun
disgruntled
hurricanes
gou
##icides
spor
outages
repatri
flashed
infin
swapping
limelight
hairst
misty
ambassadors
mechanisms
frieden
obscure
##brooke
scrambling
temptation
unreasonable
chelmsford
maze
##atient
shale
evicted
strive
constabulary
##ringham
influenza
ventures
explicitly
chunks
purportedly
thump
knicks
whats
defl
regener
letizia
burk
complexity
carragher
schoolgirls
lithuania
ceilings
renn
##number
##emaker
##ppe
segregation
agitated
113
silverman
foet
dickinson
biblical
fumes
poth
sings
wii
yun
##tern
prehist
prefect
##ibor
mommy
homage
antiqu
ensures
predatory
2000s
tumult
bridger
amendments
detainee
poultry
unsettled
salisbury
3g
wah
##mg
##weds
withheld
##ppers
offend
##mani
syring
diocese
hovering
olympian
hawth
synag
indicator
substituted
hubble
bribes
amanpour
medallist
thwarted
aol
##vell
##ouncing
##endish
grape
peaked
##anners
debating
totalling
eighties
samoa
ambushed
brandishing
religions
flawless
wazir
feas
fluct
barbour
edit
majestic
lifeline
juncker
equestrian
jind
##chenko
amar
carat
disrep
phant
colum
lows
salesman
bait
overdue
dotted
mastectomy
prowess
amputee
telecommunications
dove
recount
decree
exploding
discourage
murderous
birch
misled
rigid
##cribed
uncover
inexper
mangala
trolls
sacrificed
foresee
bav
font
pug
vinson
zabal
##yah
##acp
##chin
aborig
adored
strad
birthplace
jamal
ellison
newlyweds
bitterly
exchanging
knightsbridge
nexus
presbyterian
gins
conway
mins
surn
pooch
researched
identifies
malibu
misguided
enforcing
smartwatch
championed
railways
##blue
granite
pirlo
evolutionary
vineyard
diarrhea
trespassing
schizophrenia
rasmussen
afl
yearly
carbo
emble
esther
starter
federic
replacements
divine
albu
1937
wessex
trilogy
slippery
unthinkable
tins
##dad
anecd
weibo
exor
polished
earners
##aleigh
cristina
pyramid
paparazzi
jnr
##oro
atkins
##ogging
depict
wald
angl
ideals
physique
wilde
manipulation
paramilit
eriksen
zabaleta
dior
htc
##jour
##ono
insights
##rehensible
teleph
shearer
kaufman
dossier
noses
onsl
##ongs
mep
posture
propulsion
brainchild
jonas
jules
bonnet
symptom
intimidate
tunisian
bureaucracy
flirt
exhaustion
loophole
pom
tones
ufo
##orient
##steen
shaft
carver
preserving
remedy
staffing
178
45am
synch
salvation
corridors
kidnappings
cowardly
strasbourg
a£
yus
##olls
mayhem
surcharge
readiness
senses
scarborough
implanted
vicinity
smoothly
nupt
nasser
neanderthals
smithsonian
##24
##iegel
upstate
modelled
curling
recognisable
nbclp
paralympics
bax
##bid
##°c
stor
stumbling
##abee
knots
centenary
##cox
judd
burm
slew
criticisms
1915
wiping
mahmood
unseen
interpreter
claudio
yugoslav
##hell
bray
##iera
elsa
politico
splend
##repres
translator
silicone
1am
hool
##rified
seizing
handouts
hangover
tailor
welcomes
sotloff
boll
abst
moj
indies
obit
beta
handsh
paolo
eastenders
kitchens
novelty
naacp
broadcasts
friedman
globes
carbohydr
sard
umar
zag
prag
reperc
barring
aviva
feline
cancerous
chaired
practising
versa
£700
vaccinated
flavor
mckenna
rituals
enriched
overcame
lloris
heter
cler
##ffer
blurred
swore
24th
£39
harmony
mumm
dodd
paso
cancellations
triangle
blatant
indiscrim
repercuss
eps
sv
##but
haines
sponge
myri
awoke
donning
housekeeper
swarm
maver
##ettle
absc
fielding
lyons
predictable
seventies
barefoot
ernst
vowing
##mc
abus
disfig
transc
123
halal
mcal
jimenez
boateng
freshly
springfield
astonished
vegetarian
aleks
fragrance
sophomore
omega
ucla
wav
watt
stagn
poachers
##affir
environmentally
hoodie
desktop
applaud
flamboy
trenches
gypsy
fad
macy
violet
knuck
presided
soldado
flyers
mistreat
ethic
samaritan
moussa
adultery
napoleon
docked
hess
jiang
mons
boil
recess
sentiments
redevelop
eurost
practise
behavioural
lesbians
rotting
fahren
falcons
##corn
##gies
reese
co2
##brush
breeds
waived
huang
##enchant
augment
hooper
tenant
conceive
tagged
triumphed
cuadr
##leck
manipulate
kandahar
monopoly
thibaut
##xuals
theod
clough
fein
confessions
fireplace
discont
holdings
sickened
lamela
loaned
ferrer
747
arteries
spawned
disadvantaged
fahrenheit
dine
##path
quin
vegan
esa
##unga
mccall
concoc
versatile
shoplifting
##arenka
backlog
drifted
pratt
unpr
overp
bett
coloss
sawyer
bottoms
archie
sedan
mosquit
diction
hai
splin
grady
meditation
entities
specialized
specialises
crossbar
saddle
unlocked
birdie
hobbit
crawley
£20million
branislav
graphics
ricciardo
barnsley
fated
lg
##unks
manaus
fliers
postings
careg
artworks
gunn
immens
keystone
miscon
liberian
pathetic
kobani
azarenka
accomplishments
loughner
dobson
ploughed
dudley
##urning
##ibles
underdog
starvation
correl
racec
predecess
subscription
remarked
##rieu
dalton
michelin
unfolding
resuscitate
mcguire
bewilder
predecessors
gated
##alt
##ombo
ches
clipped
moons
##boats
propon
connie
mccoy
derel
dismissing
mouthed
taunted
bikers
dorner
##building
swings
132
futures
racer
bowen
nicotine
gcses
ventilator
tind
203
cron
reprie
monoxide
indie
southend
untouched
burge
valdes
particle
malawi
obsessive
barbados
planetary
libraries
##gregated
namib
jokingly
miraculous
resentment
tranquil
atlas
trin
##ishment
progn
idf
subpo
grandma
greenwood
progressing
1946
orphans
chalk
vouchers
subpoena
kg
##bart
##gling
ampl
recapt
phar
veins
demean
viking
businesswoman
undated
lunches
dimaggio
gorillas
donaldson
glaciers
diarrhoea
cheetah
##gios
##qing
##agua
##ogram
realities
stevie
populous
merits
novelist
bundle
handguns
crosby
1pm
poking
##ourished
envelop
glene
christoph
mcman
fedex
kidd
insistence
habitable
ample
lidl
ikea
khedira
repercussions
cordon
nay
##icits
incurs
marvin
##she
packer
criticize
engineered
bowed
fabian
paddington
indefinite
daredevil
nielsen
onslaught
exited
abiding
peel
carm
carrington
syrup
##osphere
busch
birdies
pcs
pendleton
morphine
mushrooms
artefacts
phantom
fade
ore
##uard
anom
##acter
entw
easiest
sandringham
commonplace
blockade
1949
sustaining
alternate
hammered
stevenson
microscope
kittens
forcibly
nguyen
vor
alba
himalay
mari
module
irving
skulls
simpler
gleneagles
kub
##achan
stared
slashing
safeguards
auditor
qaida
flashes
##arthur
dwight
advertisers
gandhi
incarcerated
professors
ludicrous
##poon
##opathy
robs
diff
paige
168
22nd
battleground
detectors
partnered
1938
frustrations
dyche
wolfe
illustrate
addictive
receipts
cheerleader
schwein
uygh
fateful
##page
wharf
acoust
##ileen
callaghan
mural
homer
ensuing
climbs
julio
consultancy
jogging
drifting
breeze
dives
raleigh
saeed
blighted
turks
communicated
angola
chairwoman
##banks
lamar
fuj
riy
wipes
infert
pascal
##rystal
shrimp
prehistoric
rt
##olism
##chairs
##assis
interestingly
60th
galloway
380
gazette
tamil
lahore
ounces
aluminium
unimaginable
catalyst
ave
cite
lester
##olin
fritz
chow
##onson
##plan
baden
malware
wallis
touchscreen
mobbed
distribut
##namara
vicente
wolff
bouncer
kosovo
infidelity
scaffold
fiber
mesh
##fan
##stow
storing
dejan
outage
thrashed
improm
statewide
##apps
hoover
keny
burglaries
ridiculed
apprentices
jagiel
hector
cipri
hikers
ration
##uca
farber
summed
##zzle
tuber
deportivo
snipers
##fell
reins
manne
peas
peek
##ptu
undermin
coli
corb
powerhouse
constrain
turnover
madden
personalised
pedig
divert
explorers
descriptions
poppies
pilgrimage
hydro
fusil
surname
rs
##mut
##made
##oughlin
##ucts
transm
embell
bowman
selhurst
behaviors
£750
subsidiary
cq
kra
##rat
##itaries
befri
leve
seater
orbits
charger
127
fireball
arming
uncond
vegetation
737
bianchi
jumpsuit
redskins
surrogacy
hypocrisy
impromptu
carly
mare
##ibi
##brina
signaled
statistic
lineup
broom
hover
inflict
shipman
triggers
1912
vidic
undermining
dances
kad
##enta
##advis
resorted
interrupt
hotline
welby
machete
dissatis
dignitaries
meadow
digestive
refreshing
huckabee
##quisite
whatsapp
##egaard
thiago
sheik
disorient
childbirth
finch
menacing
props
apparel
strengths
elders
immensely
2m
##acana
drums
bananas
£1billion
landrieu
lucia
accomplices
braun
zambia
autographs
cess
df
##amon
shu
roaring
simone
footballing
luz
queuing
controversially
towie
aziz
integrate
khalifa
##querque
weaknesses
showcasing
depressing
jinping
deploying
bouts
fills
gis
tand
##asher
belize
##insured
insign
murky
alexa
bottled
buckley
ayat
bridg
cavendish
gentlemen
disposable
excavation
overcrowded
trajectory
jagielka
bounds
ws
##xi
##olith
spitting
outnumber
##ildon
blackwater
olson
##ventions
bundled
kurdistan
removes
reluctance
groceries
ribery
cumber
eid
##gre
spart
mansfield
carriages
dictate
suther
polyg
incorporate
grievances
precautionary
assailant
expletive
discontent
cisse
##hops
sche
smother
retribution
els
soci
mald
sherlock
unsolved
lewinsky
bargaining
##steiger
hierarchy
arbitrary
unconventional
mbe
##wer
reich
##amba
sheds
notre
outl
flot
bele
georget
gasp
copied
recognizing
exceptions
tightened
shaky
hpv
zawahiri
dots
hort
zion
##like
notification
reput
repet
##ogged
interventions
##robor
defunct
conform
billing
fellows
berries
preventable
burnett
soundtrack
minimise
richer
vendor
tasmania
xxx
##47
##still
hast
clara
drained
maher
condo
creams
injecting
126
corr
discounted
##umpy
jumpers
pitcher
climax
cocoa
kayla
pillar
neurosc
heyday
physicist
blazing
technicians
wanderers
cochran
schweinsteiger
##advisor
ritch
sik
##opoulos
scanners
impuls
##ahua
osman
epit
institutes
bullock
analyze
concluding
vomit
alvar
kib
##jee
##eration
heap
##auld
soaking
headmaster
mustard
##married
organisms
stresses
acquittal
consisting
grossly
cleverly
lizard
eyewitnesses
silvio
dimitrov
##vable
beaver
conor
brod
looted
takeaways
christchurch
mcnamara
riches
collier
pairing
mayoral
graveyard
taboo
obamas
peppers
fernandes
rc
##lass
##elage
##igor
canoe
contends
compounded
coated
slurs
menus
competit
generator
£5million
silverstone
cyclone
anaesthetic
volcanoes
nugent
seismic
alumni
kagan
pimp
penchant
scuba
slit
340
shelley
exhibits
accuser
limbaugh
infuriated
columns
iz
##itives
##lecht
bye
drenched
phoe
greaves
deben
advertisements
vaughan
tirade
lauderdale
kirchner
rasp
##elets
onstage
chained
overhe
200m
sandals
£42
julien
analysing
ibm
cavani
meteorite
dislike
ottawa
warships
clemency
eradicate
lb
##bread
##rade
##ienced
##hap
##waters
##found
##elope
##ayne
##agus
##odus
outlining
dole
annan
##ruff
patrice
matteo
katz
romanians
ethnicity
dangling
subdued
tesla
scissors
guth
trafal
abhor
homegrown
##atte
hardened
shortlist
domino
tripadvisor
advocating
overtake
hypother
mcloughlin
axel
mcnair
euthanasia
deferred
bamboo
hinc
##base
##elo
flaming
cleav
genome
stature
visually
prevail
mcqu
maldon
completes
cannibal
calculations
archaeologist
aqap
kangaroo
bending
paved
##rust
##asco
##ilo
##seys
draper
mailed
proclaim
specializes
hooker
louder
rhinos
dominating
klins
gigantic
degrading
kyrgios
albuquerque
hens
ober
sighted
##oves
##zinger
##aran
grapes
roam
openness
hardline
arteta
ministerial
weary
26th
hilli
gallup
shelby
coffins
restriction
reassuring
turbine
wrenching
cushion
ornate
pim
##xham
leaps
sphere
moan
apache
efficiently
providence
standstill
archer
rubin
odys
1951
scanned
picasso
outlawed
caldwell
gael
lilly
moth
nac
nieto
truss
##ava
libel
149
derog
##osterone
embraces
ankara
minimize
spraying
kosc
chilli
anderlecht
ruptured
comprised
abusers
trafalgar
racy
tame
yvon
##zad
##isal
friction
wei
uniqu
uninsured
amused
commended
affl
##aelen
erosion
restricting
submarines
mantle
mosquitoes
reprieve
copp
gould
kre
kamp
##itical
beamed
reaffir
shen
##unity
##enshire
rematch
educating
cornish
captains
stocking
buckle
retweeted
landfill
pedigree
phoebe
bong
hing
naw
##aval
##oupe
motherhood
anglia
marches
searchers
audrey
strangling
£30million
browsing
ignorant
kraft
##oka
##ideo
warr
pais
tightening
seeded
buffett
installations
imperative
schumer
flourish
amphib
toulouse
housewives
sutherland
gaffe
lakers
mou
poke
##rition
##mand
##leum
##estones
exodus
##ibaly
##ugia
deficits
retaining
interviewer
jailing
peacekeepers
hurling
sync
baez
stalin
spoil
dismantled
adulthood
mcginley
interfering
mcgrath
klinsmann
mecca
##olt
grueling
accred
mona
presiding
objection
##sha
mcch
28th
darts
vault
buggy
vagina
eruptions
detrimental
cqc
gough
##85
##shir
hotly
probability
envy
##flower
ringle
pledging
rehabilit
composer
indulge
practitioners
nishik
crib
dived
dann
kess
##nuts
##face
clocked
##endale
legalization
mathew
sunnis
buzzing
flavours
cleverley
coincided
guerrero
myriad
cipriani
sigh
itiner
##illac
outset
thereafter
##coe
swamp
laver
altering
initials
besie
pads
strangely
tangled
fetched
isabel
rehearsal
carcass
kramer
anorexia
daryl
sclerosis
gmail
iker
yen
##yt
##hel
##ainable
truman
##pherson
lauded
morgue
sonar
bodyguards
deliberations
1917
thirteen
leaflets
##farlane
eternal
ayatollah
ains
##elier
orgas
drisc
nearing
genetics
insom
garments
ollie
dubious
departures
crucially
sustainability
jolly
xinjiang
paternity
autonomy
spielberg
##reys
una
teet
slices
humorous
snork
rainy
darkest
tayy
consequently
botan
inse
##agas
mole
hump
firemen
boyhood
conventions
horne
skyrock
coldest
dunes
creditors
scratches
pancreat
pavilion
intrigued
cbd
goddess
kutcher
gourmet
alleviate
odyssey
fading
hulk
jel
merm
##bler
bez
asper
unrec
enlist
elia
gluc
bookmakers
shortfall
spotify
£21
shipment
baths
preferences
klitsch
cherished
experimenting
beverages
motorcycl
vermaelen
hesitate
hydra
jindal
##kas
##post
beards
reset
inclined
##soon
submission
roundabout
cellino
gradual
aspen
nadia
hysterical
sesame
jermaine
hindsight
derogatory
geld
##65
##uru
##opause
unmarried
scud
bloke
hardworking
deadlock
garlic
varies
apparatus
£350
biologist
bolst
nicely
stefano
molesting
quarterfinal
4x4
unscathed
loll
wies
##rays
##olese
ornam
grains
arturo
millwall
positioning
##ommitt
schedules
ruther
dummy
flamboyant
racecourse
driscoll
9million
jensen
rotten
taps
taver
vuit
wagon
stutt
##endez
peach
carswell
underwood
gotze
waterproof
michaela
basildon
responsive
generates
willy
recognises
hartle
hartford
hazards
logs
enormously
scratching
pandemic
salmonella
##occup
zelaya
weeping
##enegger
goggles
nishikori
hates
och
##gard
##gement
##iford
##osta
scouring
thrashing
elm
sexting
27th
masse
arabs
49ers
jetblue
1930
altar
ugandan
obstet
cadbury
buzzfeed
##nutrition
tubercul
klitschko
##itus
##odrome
defines
demi
##apeut
rebound
reasoning
psychotic
clicking
foiled
fisheries
orphaned
turbulence
disproportionate
peacock
saharan
heterose
vuitton
bary
g8
uphill
soak
##angir
##rave
emin
hardcore
133
oxfam
pearls
gaping
sheltered
leafy
stirring
corrected
cube
fia
ferv
mb
##bil
##rano
spans
scher
smog
registr
skipped
realm
restroom
117
angelo
probing
bbc2
jihadis
bundy
contingency
fiji
vests
##hat
healed
chatter
cone
plucked
croft
perj
workouts
handlers
config
menace
discrep
sadie
punitive
indicators
coordinate
sneakers
lenient
grinning
paraguay
shunned
ominous
dahl
einstein
sans
uter
incrim
fluffy
warhol
defects
avat
systematically
lineback
balac
olsen
bridal
hanks
astronomical
blooming
yielded
waziristan
drib
roster
##si
##hear
noaa
regent
sixty
wonderland
sorting
golfers
auctioneers
unacc
boobs
dashboard
schneiderlin
metallic
burmese
busting
leuk
##issible
thrott
infested
retains
detract
paypal
corrobor
burying
lander
##structed
bowled
stables
commando
nurt
dyson
jerem
##ogenic
therapies
pinto
incorrectly
##hardt
wrinkles
ablaze
yong
zub
frig
interst
rulers
complainant
tasted
dunne
venom
silverware
renee
coughing
intoxication
frenzied
barricades
toulon
flattened
proliferation
pussy
chihuahua
balaclav
cc
vista
oft
##leys
##stander
##ambi
abstr
##isty
##azar
farr
sims
condom
testosterone
millimet
blooded
flyer
selfless
unfounded
oceanic
aerop
klan
rioting
coulibaly
oculus
stuttgart
pounced
##pies
ince
stro
shocks
##ecc
incogn
strides
colt
##integr
colleen
markovic
glitz
177
bask
workshops
pollen
stickers
baft
satisfying
elimination
resembled
ansar
shrewsbury
reintrod
chauffeur
fats
ged
mow
wass
brood
disintegr
metals
raik
oppression
mcin
latvia
circling
grizz
splashing
hawke
steril
bubba
petroleum
##thorpe
beleagu
hypothermia
huts
kok
##making
##ilant
rejo
spiegel
loic
cologne
donkey
milly
plank
simulator
filner
anglo
singleton
pinn
rigging
culmin
puppet
lonel
qualifiers
stardom
tuberculosis
gaff
##kiss
##mitt
##video
claws
libor
entity
malnutrition
mccull
crowe
darrell
georgina
1933
capsized
leaned
butterflies
beverley
spoiled
sienna
lahm
worsening
paramilitary
georgetown
gyn
oust
skiers
funnel
clinched
mccul
blasphem
accumulated
worshippers
mce
##dar
##entin
stove
bystander
afc
amended
##undy
menopause
arsen
referral
mosley
khaled
fatality
outsiders
resurgence
safeguarding
clyde
expenditure
##gevity
cleavage
yvonne
##ommittee
gret
##roup
##tyre
campuses
untreated
##enga
pett
commenter
wilkins
bradshaw
pinch
privileges
eccles
fairytale
chopper
videotaped
softer
decapitated
schwarzenegger
yewtree
beleaguered
isles
composure
downey
downloading
publicized
faulk
sirens
1916
valentino
myths
improperly
swimsuit
paxman
incognito
fas
##eons
thaw
rejects
savers
##activity
colts
annoy
paych
conditional
rubbed
biased
70th
hampstead
medalist
shedding
botelho
stalem
longevity
gabrielle
suzannah
ritchie
tid
tusc
##ben
##isp
shone
##ibar
refurb
labelling
octop
virg
mexicans
countered
juliet
lindt
recovers
baum
dolly
calcium
revolver
deprivation
socket
botsw
cinder
greeks
kear
nel
algae
deed
warmed
cupc
freud
welter
skinned
casts
rumored
blasting
prestige
booed
certificates
culminated
chrysler
farberov
botswana
muff
tumbled
tumbling
##oug
overcoming
setbacks
payouts
mcall
billie
sharper
rowan
##compan
hurtful
trailed
commercially
innovations
recreated
geek
incarceration
zakaria
webcam
cp
poked
rattled
taco
zoos
##cu
##fin
##99
##stra
##estoppers
adhere
commend
keating
patio
figur
femail
columbine
coordinating
deterioration
thornhill
schofield
sabotage
mab
ubi
chech
chipped
defy
hears
divid
rescuing
ruining
##afferty
physiotherapy
aluminum
inhalation
hartlepool
1m
doused
lal
needless
restruct
lewand
comforting
nicar
dearly
blazer
albany
hic
sisi
tidal
tidy
shaf
intending
tripped
capello
midtown
redef
##played
£34
diner
ronny
behavioral
snejana
tangible
dowd
ushered
filibuster
kers
mok
pang
##wy
##imed
commence
elb
talbot
154
182
deni
hostess
snowboard
organizer
fraudster
synonymous
jasper
faye
rachael
dix
icing
lola
shamp
sage
spagh
2050
roe
seeker
generic
classy
townhouse
ideally
crimean
275
mascher
darlington
rammed
commandos
cadillac
##esthes
rutgers
jodi
##konen
nuptials
obituary
sip
lois
mustafa
captaincy
detecting
templ
gatherings
galvan
comedians
dissol
inherent
horizont
grappling
unrealistic
nineties
##riv
spas
##otherap
joa
mince
smelled
instincts
facto
favors
sammy
volt
projections
sweating
cooks
therapeut
prosperous
unaccompan
cafeter
tumultuous
federico
geldof
unaccompanied
haley
##aye
##aden
weaver
syrac
coles
airasia
deposed
planners
docks
storyt
snapshot
nestled
perceive
strawberry
topple
bulldoz
onc
rej
disem
delaney
doubted
semitism
calculate
shameless
perpetrator
hutchinson
fantasies
schaefer
siss
wonga
##inished
beale
whitting
##agra
disin
##iewicz
refur
halo
##prom
alma
palermo
feldman
farmland
homosexuals
incomplete
zachary
nudity
reliability
anastasia
cumberb
syracuse
bly
ik
kac
##nies
##qi
2030
canv
carj
appell
##icky
regal
iris
felon
worthwhile
hurley
pakistanis
enquirer
inferno
kimberley
dysfunctional
refurbish
lena
nani
xia
scape
##oglu
coo
##ibe
relocate
##grass
doming
cybers
cyril
punishable
dimensions
neurosur
##zyns
skyscrapers
painstakingly
bratton
algorithm
mutilated
hummels
kosciel
kony
##nier
ismail
saif
haemor
usda
seasoned
maln
deepwater
torped
rigged
reflective
explanations
subcommittee
elisabeth
tindall
hinckley
rutherford
ubiqu
caleb
jem
withers
aloud
dehydr
seag
##ellan
##osti
maracana
evap
blument
swann
fargo
posthum
facade
waiter
pointless
heartache
avery
luca
circumstance
shockingly
unwel
cloudy
fooled
cinemas
oblivious
hathaway
lame
maest
chron
glaston
21s
bulb
commissioners
referenced
tori
advertise
mansour
slightest
sinatra
maurice
automotive
huddled
monastery
pounding
sian
##lene
##itant
##alm
traction
caracas
coer
quell
quipped
slots
filings
bann
lett
129
systemic
##psons
##agnosed
extras
logging
##trak
plaus
pecul
dimensional
downgraded
unimpressed
glastonbury
ee
eater
fod
gbag
##rates
##orph
anj
##idated
##enth
abuser
compatible
relinqu
quot
ledge
dispens
coleen
bombshell
enterprises
neatly
undecided
a4
##etr
##akable
##unc
deuts
gob
##istas
yougov
insert
landfall
borini
captives
##burse
£36
developmental
constitutes
mandarin
licences
burgeoning
raikkonen
blumenthal
tides
##eters
herc
sunb
likeness
crimestoppers
##umba
santi
colonies
lagoon
telescopes
brentford
molecular
mischief
chongqing
koscielny
gbagbo
3m
loth
##eous
##stood
forsy
brantly
manz
craven
drilled
indy
greats
greedy
organiser
activism
screenplay
mendes
mulberry
moistur
unintended
maneuver
eisenh
bode
kaka
oecd
anbar
forear
stut
firest
simulation
condone
hillside
maturity
budding
motorcade
£55
stuffing
rafa
assassin
unequ
prevalence
hairstyle
synchron
peculiar
gail
gucci
ned
trove
evelyn
blanch
impunity
idle
authored
freya
snowstorm
certification
baltic
euroscept
motorcycles
swallowing
nuns
amenities
baxter
debenhams
##atro
##itre
##enthal
##ibus
desks
couric
wint
annabel
armor
armitage
shorten
windfall
merger
jonah
##offs
stockton
ridicule
oversized
segments
timberlake
dictionary
robshaw
linebacker
cuc
feces
mch
mutation
stig
unchar
agr
minivan
impecc
swip
sixteen
celebratory
immers
contributes
implied
logistical
##builder
ings
administering
clamber
swooped
marquee
prognosis
besieged
haemorrh
fists
faked
##erty
##chan
leop
diso
delph
turin
##umps
crossley
psycho
rails
plantation
reunite
bosque
igor
bays
kaw
waged
raonic
recorders
136
commissioning
mascul
fuelling
nitrogen
lurking
guthrie
cumberbatch
bis
lingu
##uh
##itova
overboard
##izations
confid
scratched
collisions
faults
expectant
pedoph
restrictive
gateshead
receptionist
bouquet
gonzalo
gridlock
clifton
invaluable
2billion
cag
eileen
tilt
##bh
exoner
repris
##oppable
complied
replaces
combating
liberated
##lusive
papua
resembling
grimm
mitigating
embarking
supervisors
motorsport
warplanes
uzbek
fon
houth
nj
wigg
wifi
##apple
crossings
focal
mccoll
averaged
dispose
semen
cooperated
tsonga
stalls
sampling
incapable
brothel
mone
sow
##rand
##arb
asa
amr
boob
believers
confed
llc
hairs
bizarrely
exclude
whirlwind
limousine
aboriginal
leukemia
azz
lott
##anmen
##chem
loaf
strachan
backward
veg
124
blacked
startup
rocker
##ija
lewthwaite
sticker
tails
alberta
whiskey
gustav
adolescent
fernandinho
plasma
insomnia
stalemate
eisenhower
guts
mound
##orian
##amb
stool
brin
slips
maures
static
blackout
janice
##anka
balances
envision
winnings
quarry
captained
libyans
notebook
unheard
picc
reptiles
mlb
za
##amer
gras
perp
coerc
moeen
invade
##loat
idl
##ieth
##iffel
##cloth
fearsome
switches
levelled
confederate
rue
zard
thwart
##omar
congen
herbal
clancy
amos
desmond
consisted
mcke
teachings
sherry
layout
lamented
occupying
vibe
lectures
jealousy
koran
mellon
westerners
perjury
cache
nate
pau
##pipe
##idepress
dred
bellev
barbed
antidepress
competes
spaniel
birthdays
hawks
litvin
blindness
loyalists
arkell
comprehend
gramm
epicenter
buddh
heinz
underestimated
clutches
##a€™s
shrouded
gly
m6
##oton
shard
##ightly
adnan
groped
slade
camped
humbled
streamed
excurs
doctrine
##wayne
tener
treasured
dissolved
cherie
dialysis
newborns
jaime
undergraduate
acoustic
lewandowski
rave
##fs
##ombe
stomp
wast
shal
enfield
##ubby
quentin
opulent
depiction
detox
confess
122
162
166
valve
bedding
##marsh
scheduling
ecker
scarce
negotiators
patriarch
bellevue
tights
wanna
fran
capita
##prod
preferring
gabby
stimul
illustrates
shinse
excluding
orbital
yazidi
guildford
faulkner
zid
##kovic
##eel
##hay
stung
weber
sein
exits
braved
peripher
reclusive
airmen
faction
fortress
oils
ukrainians
mandated
containment
diabetic
caviar
gmc
inhum
atrocity
buchanan
##inelli
##arde
flop
stren
assurance
slang
patents
statesman
empowered
##oining
peacekeeping
enjoyment
achilles
analyt
winehouse
yellowstone
essentials
dwelling
nugget
mascherano
mauresmo
paving
##acio
##abies
recurring
flair
phob
governed
barney
164
supercar
mornings
##uggish
dailymail
limbo
divul
storming
clothed
resigning
bleach
munoz
papal
reconn
novosti
mudsl
fabrics
automobile
fizzy
voicemail
wack
##alc
pritch
##sef
allot
sykes
steered
magpies
ipo
hobbs
maidstone
giraffe
vivian
##iquette
illuminated
unrecogn
higgs
muss
zap
aniston
exert
##herent
##ardon
crut
souza
slapping
chees
malky
respectable
froze
mysteriously
reconstruct
tiananmen
kvitova
shinseki
dade
##rol
##oor
##gill
##ician
##illusion
immac
duly
kimmel
reformed
tunes
kayak
counselors
archaeology
wrestled
fundamentalist
stereotype
quarantined
##birds
peggy
kern
zet
##sd
##adena
hagg
mango
polanski
flushing
firstly
remission
hotter
billings
romp
bulbs
undo
commanded
precinct
fetus
hotspot
mckinnon
giuliani
vying
wak
##coring
##eke
##pg
##35
##alyp
shelled
sauc
hadi
kebab
talisman
nationalists
15am
homicides
berger
televisions
utilities
relaxation
kiw
blooms
squirrels
kouachi
lighthouse
firestorm
##dell
prad
unden
##umbo
##antes
cropped
incurred
disillusion
firsthand
refined
explores
##shield
##ismith
burrell
equation
melinda
sheldon
kras
carrots
naismith
unnecessarily
stitched
melanoma
skepticism
culprits
gillespie
scapego
zidane
dara
mesa
pram
gofund
sana
badges
probes
nickel
settlers
definite
foil
pistols
##rovia
uneasy
bemused
derelict
baird
render
shant
##chool
offline
incest
bojan
everett
furore
merrill
doorway
connectivity
pups
virtue
furnish
zombies
cremated
cedar
caitlin
shipwreck
asperger
##alypse
kho
worms
##ostic
peep
signalled
boycot
growers
portman
islanders
separates
archdi
routines
danczuk
warmest
pocketed
fitzpatrick
racket
unstoppable
guerrilla
kassig
litvinenko
1billion
kail
##biz
##eco
##ulse
##allab
grayson
amin
acclaim
recup
schooling
southgate
137
stationary
raining
affiliates
renewal
styling
hopefuls
dependence
trimmed
empowering
exacerbated
unwittingly
gofundme
ais
fcc
notifications
##istries
peps
bludge
phi
additions
banquet
wedged
powerball
cyan
rapists
blogging
papa
astronomy
overtaken
£100million
cassini
robotics
bicycles
mathematical
navarro
negredo
heterosexual
##pill
hectic
##imat
hadley
clatt
smelling
##appa
christening
entren
debacle
tracker
benefiting
golfing
intensely
tulisa
preceded
iqbal
inhumane
lul
newfound
amtrak
##ipel
knighth
##lude
winn
morality
robes
horribly
trustee
raph
blueprint
£4million
henley
fledgling
watershed
evacuations
blinded
##ometric
slimmer
fabricated
deposition
lithium
comforts
##zynski
vr
##cett
##dah
##vangir
spilling
clots
pey
bland
downloads
##azier
winnie
simpsons
startled
grandchild
terminals
bertr
norms
##aea
dwyer
shoreline
monumental
congolese
scaffolding
pancreatic
spaghetti
##vangirai
aap
horton
##itative
##unton
##ivoc
blago
runways
halved
insulted
revamp
£37
oligar
swimwear
recommending
brewery
ghosts
writings
mangled
fronted
entwistle
##fp
##stant
##assic
eli
suspending
salem
tsvangirai
pigeons
klopp
rotating
chadwick
gosnell
oyster
categorically
specimen
veterinarian
inseparable
cider
eul
shet
sauna
goats
ammon
carb
supper
patty
unfinished
tym
pasadena
stephenson
humphrey
sausages
harlequins
tandem
4m
nir
##rata
##dain
beads
spelled
##hernal
schul
gunner
executing
madagas
luh
terminate
responsibly
berth
##hoe
ulster
willingly
kirsten
toxins
buffet
mysteries
convertible
vivienne
underestimate
unaccounted
clattenburg
##hernalia
dion
maced
##acan
seep
20pm
compartment
coax
paraded
ministries
##brag
buoy
farn
babe
shortcom
silently
favours
ferrell
concession
lasers
odor
climber
kerri
dramas
muir
sneez
dodgy
inexpl
leggings
paraphernalia
recollection
inexperienced
tenerife
madagascar
tad
##uates
##etam
bled
triathlon
clements
davos
drawer
misrepres
spanned
instructors
habitats
fascist
interacting
friendships
hijab
dianne
albania
abolished
dissidents
unilateral
unwelcome
knighthood
raphael
shortcomings
eaves
giov
##pieces
##atore
##igi
frampton
##alla
##isham
2019
commotion
harp
collman
conspired
benches
dyed
regrettable
luna
echoing
£16million
titanium
handwriting
##jevich
pryce
buc
elo
kare
waging
##bah
heed
mankind
twink
teased
miner
121
emerald
tweed
fueling
555
etiquette
strangle
kosher
remorseful
showcases
extinguish
plummeting
mccluskey
bertrand
fencing
joker
klaus
##vantage
##adden
exquisite
colback
##elez
144
superiors
29th
sarcast
savag
forgetting
emphatic
installment
hotspots
enquiry
##inch
liking
append
parma
##angled
crept
gluten
piling
frederic
jeanne
bethany
lumps
abdulmut
composite
necks
residences
gothic
ailments
bhar
jahi
kph
mazz
xabi
unru
helium
storyline
triplets
goalscoring
characteristic
dieting
##rosis
pedal
smiley
rotation
emphasize
balding
reversal
astronomer
placards
insecure
eurostar
das
eiffel
hove
mgm
##outing
tep
whereby
mapped
redist
godfather
casinos
alias
mentioning
lorries
benchmark
sneaking
triumphant
cottages
gems
expansive
antibiotic
attachment
vaughn
daytona
ktla
crutches
abdulmutallab
bauer
wann
##fest
##iners
##ichuan
belo
barth
moratorium
changer
hoops
239
packaged
brazilians
platini
blindf
discriminated
bakr
disagreements
assailants
chromos
moustache
synagogue
haiyan
##orio
shaving
##ghen
briggs
pervert
##aziz
##ribe
footprints
morbid
£130
programmed
freshwater
bonding
acquiring
strategically
raven
sewer
admirers
bingo
thyroid
maldonado
zardari
sass
##wire
##eto
##ulently
mariano
boiler
downp
postcard
billboards
radically
hostilities
limestone
totaling
##unkett
dorchester
dynamo
pellet
whisked
deteriorate
rendering
tempting
sceptical
incompetent
balmoral
fouled
blagojevich
##iative
stashed
asbo
##agos
##riety
neb
uphe
##uders
##ishi
overre
famine
1920
##iams
##show
irina
domination
verton
examines
italia
ayr
kaymer
manuscript
sapphire
shrugged
cafeteria
tau
yak
##tail
knocks
tees
socio
153
formations
treble
vanilla
cooker
preventive
registering
advocated
isolate
mcdonough
dodgers
compromising
skeletal
sulph
chimpanzees
abstract
8m
boul
kins
##gon
onwards
chas
##izen
donn
helpline
prototyp
statistical
daven
calam
snag
jackman
motions
romans
benign
pinter
shrunk
disrupting
libertarian
hydraul
vertonghen
ds
mlad
ratch
yuk
chores
notch
exemption
clas
manners
fourteen
patiently
cutter
bidder
franken
horseback
scarring
##aksin
rioters
epidemi
cavalry
plausible
oligarch
downpours
wich
onions
islington
asos
afloat
trapp
carav
parting
moines
steff
viagra
quickest
generators
railings
pleasance
crook
amputation
cadets
dependency
belgrade
handshake
davenport
kady
mating
pbs
##iency
##gc
##hound
saj
loom
smoker
markers
juve
kindly
##class
nonvi
krug
emptied
niche
wyatt
fahmy
yousaf
arrogance
therapeutic
lana
##rists
prada
chicks
##quest
patten
ceramic
embroid
combinations
drying
gearing
astra
campsite
buddies
chalet
witty
digitally
reimburse
yingluck
dehydrated
unequivoc
kene
nt
##kie
##mobile
##fm
##enne
passions
##iken
garros
intruders
alcoholism
nominate
heroics
0800
coco
haynes
motivate
akbar
fundraisers
walsall
umbrell
fuselage
chisora
raffa
yugoslavia
archdiocese
hiber
##eming
##iche
myspace
swirling
pressur
crossroads
versace
jayne
##ciech
hijacking
obscured
ecuadorian
landlords
##erbai
##ontinental
cuadrado
loneliness
tik
##eka
##elines
haskell
spicy
##uben
handheld
passive
greening
criminally
##sworth
financier
owing
opta
etched
pigment
assemble
harvested
£50million
exhausting
delightful
hirst
fawcett
treadmill
binky
pia
sars
##zes
chu
cland
roared
showered
tripp
menendez
131
classification
mercer
worthless
brandy
azerbai
buckets
vigorous
exceeding
reefs
cambodian
submissions
seac
grun
mehs
blak
teb
parted
wedge
distorted
musa
stripper
martins
intrusion
intraven
floodwaters
ridley
crypt
jammed
aspire
dwp
caterpill
postpone
carpets
housewife
wojciech
carnegie
sichuan
tenn
##listed
##inational
##estine
arpa
repression
respite
apes
statins
inflicting
cellular
charlott
springsteen
abbottabad
adebow
heralded
wrestler
embryo
densely
specimens
disapproval
colossal
idlib
umbrellas
baz
fgm
rin
sledge
##iator
##fight
##stay
foreman
alain
hassel
abid
ench
##endra
percy
phe
bigot
metz
cameo
prodig
sno
saldan
embank
curls
£38
bolly
occupational
pembr
##oj
ather
unass
aftersh
clocks
pert
decked
quigley
moores
showbiz
skipping
119
windshield
specialised
domen
##cloud
multinational
recognizable
£49
macmillan
##belt
etan
vigilante
zebra
pierson
eclips
glucose
bitch
##rons
willough
scaling
lovel
pervas
underlined
guad
barre
##gettable
handmade
##stroke
declares
audacious
rapids
ceased
christiane
gammy
radicalised
1910
electroc
horner
diminish
cleansing
aaa
foe
ia
rents
##fra
##atur
chet
hagan
comets
lookal
wrath
morse
staffed
squand
immoral
volvo
boxers
disposed
clarified
acquaintance
hibern
bex
marussia
discer
demichel
swast
westfield
kidding
rocketed
sandberg
disclosures
yeov
benteke
finnish
bribe
infringement
avatar
forsyth
dined
dhs
hord
pans
##orca
##elie
fraught
##riere
brist
perugia
monrovia
decency
barren
confided
redeem
suffocated
burt
envis
franck
toro
torrent
punj
vacations
screenings
terrest
theatrical
kennel
vicki
aquatic
unforgettable
protracted
brokered
laureate
namibia
shampoo
kot
mers
rican
propel
middleweight
keynote
60mph
okin
bragged
uninhab
bridesmaids
domestically
befriended
arpaio
adebowale
saldanha
demichelis
bion
gq
gue
mop
zain
clair
moh
slough
elk
corby
squar
misrata
fatig
mirren
faiths
scarves
labeling
voyager
abundant
photoshoot
maldives
willoughby
fang
ranc
##uni
grail
proactive
scoured
intu
internship
provoking
pleasing
ashcroft
inquis
##cheduled
venge
aux
mouss
bragging
loosely
catter
##bos
shiver
saido
centred
infused
armist
rodent
gopro
##iciencies
persuading
mistreatment
abhorrent
cw
yul
##oucher
##ombs
##igible
##chio
trud
doo
twists
monstr
teasp
getty
guessed
slav
edging
secondly
discontin
valu
breakaway
bagged
copying
hayward
clicked
crawled
rashid
reinforcements
confederation
obstructing
bate
eze
nd
xu
##dick
##68
thaksin
beasts
##acons
##bern
maribor
stares
affleck
allowances
popcorn
landown
civilization
hairy
unfl
dispers
controversies
gripping
£450
adjusting
whiteley
bromley
mckay
##olithic
950
cbc
hopping
nh
nih
##gary
##itory
shapps
franz
##ells
reggie
mclean
escapes
exhibitions
concentrations
1922
sweatshir
captioned
positives
bracelets
mcgill
dhaka
disadvantage
reshuffle
apocalypse
foreclosure
nour
pg
tt
tether
zolf
##cus
##idad
sealing
daybreak
50p
dias
fema
behaviours
chestnut
kobe
resolving
chocolates
zhou
renovations
concussions
insecurity
uniquely
kessler
fift
ml
##bilt
##cal
trapping
20am
##acha
##loban
clapper
##coat
takers
deli
mcgovern
premise
complexion
eliza
mutilation
dishonesty
anatomy
sturgeon
nrl
pkk
rath
tess
vw
atf
sabrina
reps
decks
invo
sunbed
specified
messed
antiox
losers
298
quarterly
conductor
ribbons
adjustments
tacloban
humphries
levinson
auditorium
ubiquitous
bows
nino
pess
##fy
##anza
reju
##endously
outlines
invinc
veered
deme
swelled
swamped
refinery
westgate
differing
painfully
heartland
constell
radius
trusting
multicultural
frankel
virginity
macneill
heaton
princesses
distrust
aguilar
jarrett
reversing
soto
ancestry
assumptions
mathematics
perilous
culmination
aleksand
mcculloch
pritchard
antioxid
kinn
lv
saul
invading
retina
redmond
goalkeepers
rounding
##monary
nadine
repairing
hesitation
philosoph
accomplishment
unauthorised
encrypted
tussle
wintour
nc
poc
##rail
##zag
##zak
heeled
##cephal
plume
blitzer
wintry
##attara
158
saliva
timeless
primitive
420
jubilant
samaras
vodaf
a380
disproportionately
haqq
jeremiah
omb
sord
##icer
##ream
##lew
grotes
moose
sonny
austen
discs
143
inspires
colliding
##naec
cashier
dealership
##oscopy
commodity
vanderbilt
pradesh
vodafone
junta
##pes
##inform
beige
##ogor
chargers
slal
creme
typing
academies
battering
fluent
laboratories
passionately
stansted
wickham
affectionate
cuddly
complimentary
rejuven
bick
##brae
##iw
##vre
##ifard
##enden
incidence
marissa
warne
##horse
modric
salman
defends
negatively
tempered
lambie
lori
wwii
guessing
tux
subsidy
arbitration
leahy
overcrowding
remedies
interstellar
dante
jams
##29
shenz
sap
grumpy
##olla
edith
annette
newsroom
sundays
petitions
malone
boardwalk
soror
primates
prosthet
inventory
kaiser
otto
traumatized
euphor
johansson
mcalpine
joaquin
6m
ktv
##butt
##isch
cray
starlet
snl
challengers
accessor
capitalism
ethos
ramires
forestry
lyndon
pillars
persuas
welshman
microch
giglio
portraying
mesmer
berez
clintons
goddard
invitations
unruly
noc
foray
segregated
drople
desires
lawless
updating
sanjay
##uffles
intrusive
mirallas
£6million
007
fools
unbelievably
enclosed
gynaec
peanuts
nassau
philanthropist
tarnished
valdez
quartet
welterweight
malnourished
fife
ruse
##agle
##ighty
aruba
leftist
earmarked
midland
strife
breaker
dij
£33
ventured
##iacos
stalker
reluctantly
lexus
mcclaren
sigur
tormented
bollywood
lumin
oaks
tass
##arov
##isie
##adier
rekind
##igans
haf
##aghar
depp
acr
enlight
interiors
defected
hearse
taxation
keyes
selfridges
financed
##borg
suitcases
##breaker
##enoord
mockery
sicily
newcomer
nostalgia
ascent
align
##oso
exiting
goody
lien
parano
##rax
impulse
starters
regis
societ
recognising
365
unsust
structured
brilliance
pereira
abnormalities
dwindling
blindfolded
charlottesville
yeovil
armistice
zolfaghar
zolfagharifard
ripe
##onder
##onne
stirling
bluff
##gren
paused
whitehead
147
archipel
supremacist
lieberman
hateful
##iasco
astor
frosty
relentlessly
feyenoord
intolerance
corbett
octopus
mito
rauc
vp
##isen
##store
##arte
crazed
##athom
##izers
needlessly
redemption
numbered
134
forceful
alternatively
ventilation
discriminate
cords
dismembered
restructuring
luhansk
embankment
cotsw
kip
oj
##dt
hep
polk
##ogical
magdal
##mington
sanogo
dialled
sandro
discusses
siro
ashworth
ceos
penning
apologizing
exercised
railing
firefight
dugout
stimulation
nightclubs
twisting
dotcom
playoffs
disparity
pugh
yarm
##nom
fring
unreg
##ptuous
paratro
straps
locom
sentimental
procure
squid
misman
olympiacos
rods
measurement
decoration
intimacy
prominently
keneally
fiasco
jars
ketch
nes
##ativity
##avier
atten
##ignon
coates
retreated
nationalities
deval
summar
negotiator
headscar
maple
decorating
cherish
piercing
landslides
dismantle
defectors
##zukic
indirectly
exorc
9mm
doting
gash
##uso
##elee
idi
turbo
learns
##meat
derrick
rumor
affiliation
adjud
crucif
##hdi
bruni
dignified
taiwanese
placenta
unreliable
contemplating
comprises
tymoshenko
sven
arfa
ploy
##ogg
schl
veiled
trafficked
mattered
ordin
mandzukic
radicals
pierced
sloan
stalked
cobra
creeping
frisky
##journal
entrenched
paranoia
##sticks
outland
##ectives
remake
claimant
##annies
solace
finalized
##swick
declines
wilkes
revamped
independents
ashraf
adventurer
klose
artificially
interrogated
£160
ancestor
robbins
mongolia
accolade
thumping
hastily
zetas
fifties
gimm
hatched
##gv
##anova
leila
spikes
##oreen
##ansa
boz
recreat
fireman
##burton
bonhams
astounding
kilometre
dalg
juveniles
rackete
niall
chimney
adversity
syndicate
hawthorns
anglican
tayyip
chechen
gathers
pt
rok
##gang
##icke
##enting
beware
fray
##ocar
loo
callers
standout
138
##afat
articulate
namesake
macleod
equalizer
ventura
inspecting
siem
##occoli
precarious
sporadic
##mead
##asley
##cheng
plunder
injure
snugg
##ooned
fraudulently
malls
irrational
adapting
mantra
scalia
irregularities
esteban
yosh
##xon
sper
rolex
imbal
disarm
##anca
swarmed
merged
cashing
psychologically
democratically
caterham
drainage
mermaid
##otherapist
cyanide
##ogorets
baza
lus
merv
rink
zou
##iaries
##abre
flipping
workmen
fared
scrawled
174
excel
erase
cookery
£8million
morrissey
expeditions
squeezing
evidently
rehearsals
infiltrated
metabolism
##runner
candlelight
pervasive
terrestrial
gha
higu
##wig
##reted
alaw
plumes
ormond
canopy
genoa
pastry
214
basing
boardroom
cardigan
widening
sprouts
decorate
capsules
anchored
disagrees
ricin
ludogorets
uneven
inhabited
wakes
##oui
[...]
